<pad>	0
[CLS]	0
[SEP]	0
<unk>	0
[MASK]	0
.	-3.23499
▁	-3.40966
,	-3.95864
/	-4.38713
▁#	-4.57416
://	-4.71565
의	-4.75126
)	-4.92051
을	-5.09425
이	-5.13021
에	-5.16841
]	-5.17411
▁:	-5.24461
com	-5.26021
-	-5.35917
(	-5.42093
를	-5.43987
!	-5.46534
▁https	-5.49649
가	-5.50723
▁[	-5.531
:	-5.595
과	-5.61137
#	-5.63259
?	-5.67099
www	-5.69442
은	-5.69584
▁-	-5.70247
는	-5.70312
_	-5.82991
▁(	-5.87742
로	-5.89895
도	-5.90043
▁수	-5.93325
'	-5.95475
s	-6.0006
▁http	-6.05932
kr	-6.06918
와	-6.07887
에서	-6.09533
한	-6.15886
▁1	-6.1911
년	-6.20742
1	-6.24501
으로	-6.30358
▁있습니다	-6.30865
입니다	-6.33154
2	-6.33625
▁'	-6.35439
https	-6.3587
▁및	-6.38174
co	-6.38462
일	-6.44797
인	-6.47266
▁2	-6.48224
지	-6.4845
▁/	-6.50609
기	-6.54335
고	-6.54745
▁있는	-6.6178
----------------	-6.62965
▁3	-6.63165
tv	-6.64463
naver	-6.65893
3	-6.66948
강	-6.67634
시	-6.68434
=	-6.69757
하는	-6.70113
"	-6.73792
월	-6.75604
▁이	-6.75737
사	-6.79404
자	-6.80809
하고	-6.81283
대	-6.82271
5	-6.82581
수	-6.84668
해	-6.85535
d	-6.85841
회	-6.86608
ly	-6.86684
▁등	-6.86715
주	-6.89041
▁"	-6.90965
4	-6.92095
[	-6.92464
만	-6.9485
다	-6.98757
~	-6.99798
원	-7.0119
부	-7.01641
a	-7.01739
bit	-7.03054
장	-7.03322
youtube	-7.03942
서	-7.04345
▁제	-7.05104
▁대한	-7.05267
0	-7.05448
8	-7.05689
할	-7.06101
be	-7.07558
▁강의	-7.08169
&	-7.09534
▁|	-7.0971
7	-7.10145
▁위한	-7.11313
▁4	-7.12275
@	-7.13917
까지	-7.14701
▁the	-7.14927
▁한	-7.15038
http	-7.17124
9	-7.17579
c	-7.18803
성	-7.19431
▁영상	-7.19919
화	-7.20076
*	-7.20168
6	-7.20806
나	-7.22961
차	-7.23295
제	-7.25997
▁함께	-7.26839
youtu	-7.26974
급	-7.27327
▁더	-7.29625
▁5	-7.3003
e	-7.30726
▁한국	-7.30793
b	-7.30829
적	-7.34129
▁2020	-7.35507
진	-7.35697
m	-7.35917
▁전	-7.37404
/2	-7.37448
전	-7.37578
v	-7.40389
스	-7.41771
▁통해	-7.41903
p	-7.42157
어	-7.42231
t	-7.42527
gl	-7.42844
▁채널	-7.43333
선	-7.43822
분	-7.43941
instagram	-7.44168
상	-7.44417
▁a	-7.44459
호	-7.45121
교육	-7.4523
리	-7.45443
동	-7.46357
정	-7.46723
...	-7.47316
▁위해	-7.47432
▁10	-7.47891
명	-7.48805
19	-7.49059
▁유튜브	-7.49492
ytn	-7.50164
goo	-7.50267
o	-7.50892
facebook	-7.50904
blog	-7.51175
!!	-7.52303
▁그	-7.52984
법	-7.53906
▁중	-7.55205
▁to	-7.56243
조	-7.56268
k	-7.56354
g	-7.57019
하기	-7.57318
▁and	-7.57567
▁홈페이지	-7.58487
형	-7.58936
비	-7.593
용	-7.59379
아	-7.5938
i	-7.59396
▁많은	-7.59646
세	-7.59977
▁of	-7.60476
구	-7.60541
들이	-7.60567
▁ytn	-7.60871
▁6	-7.61144
편	-7.61505
▁교육	-7.61642
된	-7.62092
면	-7.62877
n	-7.6456
미	-7.66542
신	-7.67912
중	-7.67983
개	-7.68295
학과	-7.69499
cafe	-7.70106
합니다	-7.71271
라	-7.71637
번	-7.71657
소	-7.72117
실	-7.72157
.[	-7.72487
▁할	-7.72645
들	-7.72743
식	-7.73076
▁대해	-7.73203
▁하는	-7.73626
▁다양한	-7.73825
게	-7.73848
▁모든	-7.7479
산	-7.75265
영	-7.7611
영상	-7.76288
▁8	-7.77809
▁by	-7.7817
▁합니다	-7.78345
▁구독	-7.78522
강의	-7.79158
학	-7.80103
우	-7.80277
위	-7.80666
▁7	-7.8133
▁2021	-7.8135
▁in	-7.81579
부터	-7.8159
▁관련	-7.82205
▁교수	-7.82803
했습니다	-7.84394
경	-7.86318
뉴스	-7.86529
재	-7.86839
▁안	-7.86885
하게	-7.8696
ing	-7.87414
유	-7.87711
하	-7.88066
권	-7.89547
하여	-7.90838
요	-7.90914
▁9	-7.91576
▁것	-7.91625
오	-7.91949
▁있다	-7.92006
보	-7.92281
야	-7.93019
단	-7.9379
y	-7.9459
▁어떻게	-7.94623
▁내	-7.94658
▁고	-7.94895
r	-7.95179
금	-7.95838
▁온라인	-7.96744
반	-7.96811
▁잘	-7.97383
현	-7.98003
관	-7.98145
q	-7.98227
▁많이	-7.98664
대학교	-7.98765
net	-7.99058
▁후	-7.99166
x	-7.99549
에게	-7.99742
▁다	-7.99803
10	-7.99987
▁소개	-8.00952
마	-8.01229
▁안녕하세요	-8.01298
▁정	-8.01324
news	-8.01365
▁김	-8.0139
▁&	-8.02177
관리	-8.02313
▁2019	-8.0357
▁됩니다	-8.03798
▁입니다	-8.04192
id	-8.04244
방	-8.04373
kakao	-8.04459
▁전문	-8.04781
ed	-8.05226
▁어떤	-8.05433
들을	-8.05462
▁필기	-8.05607
천	-8.05631
여	-8.05691
적인	-8.05744
▁방법	-8.05835
점	-8.05868
▁영상을	-8.06134
안	-8.06805
치	-8.06847
문	-8.06888
+	-8.07366
f	-8.0814
론	-8.08148
한국	-8.08312
▁가장	-8.08724
연	-8.08894
▁때	-8.08912
트	-8.09095
▁본	-8.09135
▁우리	-8.09672
▁코로나	-8.09675
들의	-8.10369
▁문의	-8.10421
▁제작	-8.10425
▁바랍니다	-8.10428
u	-8.10534
무	-8.11198
▁대표	-8.11319
본	-8.11444
▁시	-8.11741
김	-8.11899
민	-8.12313
▁이야기	-8.12478
▁것으로	-8.13091
w	-8.13154
직	-8.14301
▁뉴스	-8.14408
al	-8.14534
에는	-8.14692
▁공식	-8.14954
▁그리고	-8.1511
▁for	-8.15256
이나	-8.15564
에서는	-8.15868
종	-8.15961
▁20	-8.1601
그	-8.16191
▁좋은	-8.16376
▁서울	-8.16419
▁안내	-8.16636
▁따라	-8.16681
산업	-8.16954
방송	-8.1814
▁방송	-8.18983
▁모두	-8.19781
석	-8.20264
▁유	-8.20331
시간	-8.20424
박	-8.20488
▁*	-8.20525
in	-8.2062
▁자격증	-8.20916
▁국내	-8.22003
▁기초	-8.22397
▁11	-8.22514
정보	-8.22616
▁신	-8.22775
▁해	-8.22841
▁세계	-8.23059
channel	-8.23084
▁12	-8.23249
▁설명	-8.23252
드	-8.23516
▁시험	-8.23679
▁직접	-8.24118
▁박	-8.24439
더	-8.24473
공	-8.24548
▁꼭	-8.24629
니	-8.24732
▁분석	-8.25019
국	-8.25498
▁개발	-8.26028
모	-8.26044
계	-8.26232
하지	-8.26501
or	-8.26519
▁무료	-8.26628
▁주	-8.26678
물	-8.26746
▁큰	-8.26999
▁영상입니다	-8.27886
▁원	-8.27951
▁합격	-8.28068
별	-8.28088
▁도움이	-8.28107
▁블로그	-8.28563
▁동영상	-8.28842
▁오	-8.2895
l	-8.28959
철	-8.29444
양	-8.29597
▁기업	-8.29689
▁페이스북	-8.29705
do	-8.29893
당	-8.2995
▁지원	-8.30732
희	-8.31035
▁영상은	-8.31237
▁투자	-8.31467
music	-8.3163
배	-8.32216
▁일	-8.32534
내	-8.32671
▁하고	-8.32699
▁다른	-8.32733
센터	-8.33333
되는	-8.33369
me	-8.34885
체	-8.35505
기술	-8.35545
▁두	-8.3569
▁바로	-8.3611
/_	-8.36123
▁기술	-8.36325
초	-8.36347
하며	-8.36355
등	-8.36398
두	-8.36713
태	-8.36719
▁실기	-8.37449
란	-8.37482
▁좋아요	-8.37735
%	-8.37855
▁이번	-8.38397
▁대	-8.38553
h	-8.38924
▁정보	-8.3897
병	-8.39
적으로	-8.39021
watch	-8.39051
12	-8.39137
기업	-8.398
list	-8.39918
er	-8.40114
▁새로운	-8.40214
sbs	-8.40327
청	-8.40388
▁사	-8.4063
생	-8.40744
▁조	-8.40764
view	-8.40781
▁30	-8.40791
▁비	-8.41258
ac	-8.41472
go	-8.41763
준	-8.41822
▁기사	-8.41829
▁취업	-8.41834
▁장	-8.41897
11	-8.41957
04	-8.4206
▁영어	-8.42193
▁디자인	-8.42262
타	-8.42673
남	-8.42892
^^	-8.4312
▁is	-8.43141
하면	-8.43393
▁될	-8.43504
이다	-8.4394
▁제보	-8.44178
임	-8.44713
디자인	-8.44783
▁연구	-8.44883
며	-8.4498
목	-8.45205
▁바로가기	-8.45236
▁it	-8.45269
▁없는	-8.4531
▁i	-8.45465
▁미국	-8.4574
히	-8.4591
▁you	-8.45926
학원	-8.46031
================	-8.46039
들은	-8.46472
▁필요한	-8.46972
▁시작	-8.46974
학교	-8.4698
노	-8.47048
▁있도록	-8.47248
분석	-8.47479
24	-8.47799
▁이상	-8.47837
▁최	-8.48019
엔	-8.48042
거	-8.48392
교	-8.48633
기자	-8.48645
▁수업	-8.48714
포	-8.48848
방법	-8.49035
▁지난	-8.49179
j	-8.49179
토	-8.49308
▁제공	-8.49446
▁인터뷰	-8.49733
/3	-8.49744
▁이해	-8.49999
▁등을	-8.50127
해서	-8.50143
러	-8.50242
파	-8.50265
),	-8.50288
▁부탁드립니다	-8.50381
no	-8.50525
시험	-8.50535
21	-8.50601
▁구독하기	-8.50858
▁중국	-8.5099
과정	-8.5122
20	-8.51291
▁카페	-8.51296
▁때문에	-8.51354
15	-8.51373
▁준비	-8.51437
군	-8.51592
17	-8.51807
건	-8.51908
▁진행	-8.51989
▁문제	-8.52078
▁2018	-8.52085
길	-8.52102
▁kbs	-8.52344
▁기출문제	-8.52567
발	-8.53141
▁국제	-8.53205
▁서	-8.53376
보다	-8.53838
문화	-8.53899
▁말	-8.53925
it	-8.54031
01	-8.5409
집	-8.54252
대학	-8.54273
해야	-8.54353
창	-8.54604
▁사회	-8.54799
)-	-8.55041
▁경제	-8.55048
▁감사합니다	-8.55136
▁지역	-8.55157
심	-8.55471
▁지	-8.55616
▁것이	-8.55639
▁같은	-8.55825
▁또	-8.55861
gmail	-8.55934
▁on	-8.55984
디	-8.56157
사업	-8.56228
자격증	-8.56574
▁사용	-8.56758
▁운영	-8.56767
감	-8.56782
z	-8.56924
▁기본	-8.57021
억	-8.57111
업체	-8.57227
앵커	-8.5724
팀	-8.57319
근	-8.57476
06	-8.57577
16	-8.57587
가지	-8.57855
▁만들어	-8.58048
09	-8.58157
층	-8.58535
▁with	-8.58567
▁총	-8.58603
문의	-8.58619
▁인스타그램	-8.58741
경제	-8.58776
ᅵ	-8.58878
티	-8.58946
음	-8.59136
▁되는	-8.59168
환	-8.59231
▁19	-8.5949
▁미래	-8.59692
▁아	-8.59789
한다	-8.5995
판	-8.60493
08	-8.60537
07	-8.60607
역	-8.60627
저	-8.60783
▁보고	-8.6143
php	-8.61495
열	-8.61499
▁하	-8.61509
데	-8.61522
피	-8.61838
re	-8.62047
유튜브	-8.62102
▁관리	-8.62201
연구소	-8.62569
▁공부	-8.62662
백	-8.62668
▁산업	-8.62776
▁미	-8.62804
18	-8.63164
▁쉽게	-8.6354
twitter	-8.63588
2.	-8.63619
▁상담	-8.63624
탄	-8.63678
주식	-8.64033
▁사업	-8.64272
▁이론	-8.64369
력	-8.64453
02	-8.64502
상담	-8.64567
홈페이지	-8.64631
후	-8.64672
▁대한민국	-8.64726
us	-8.64856
▁프로그램	-8.65021
▁소	-8.65118
승	-8.65157
업	-8.65458
05	-8.65667
▁공인중개사	-8.65777
▁양	-8.65827
▁부	-8.6587
▁경우	-8.65958
03	-8.66089
▁학습	-8.66107
▁부동산	-8.66161
구독	-8.66192
▁서비스	-8.66455
▁지금	-8.6656
at	-8.66571
영어	-8.6665
13	-8.6667
▁문화	-8.66899
open	-8.67083
약	-8.67287
르	-8.67294
--------------	-8.67351
기사	-8.67611
온	-8.67827
▁~	-8.67883
질	-8.67914
▁korea	-8.67966
▁촬영	-8.68162
▁대비	-8.68608
평	-8.68864
▁15	-8.68915
14	-8.68994
운	-8.69042
지원	-8.69112
류	-8.69232
the	-8.69279
▁시간	-8.69382
바	-8.70211
던	-8.70335
강사	-8.70643
카	-8.70671
▁강사	-8.70769
간	-8.70888
to	-8.71081
코	-8.71276
▁k	-8.71277
ch	-8.71291
▁약	-8.71372
▁무	-8.71579
mbc	-8.71645
에도	-8.71688
광고	-8.71723
▁첫	-8.71902
▁나	-8.72076
pf	-8.72345
연구원	-8.72393
▁네이버	-8.7243
▁것을	-8.7244
▁확인	-8.72445
▁tv	-8.72479
레	-8.7255
▁가	-8.72563
▁세	-8.72654
광	-8.72753
▁공개	-8.72924
▁전문가	-8.72931
▁구	-8.73018
."	-8.73079
=1	-8.73146
▁음악	-8.73186
▁이유	-8.73207
▁일본	-8.73367
▁모	-8.73374
23	-8.73606
▁다시	-8.73615
▁강	-8.73672
복	-8.73736
program	-8.73817
▁환경	-8.73822
▁과정	-8.73857
30	-8.73916
▁생산	-8.74302
▁현장	-8.74396
▁초	-8.74556
25	-8.7476
회사	-8.7481
▁아니라	-8.74847
▁상	-8.74905
즈	-8.75092
크	-8.75159
▁저	-8.75255
▁현재	-8.75346
▁신청	-8.75466
▁국가	-8.75642
지역	-8.75643
페이스북	-8.75657
될	-8.75693
이번	-8.7578
코로나	-8.75844
▁e	-8.7585
서울	-8.75855
라는	-8.76596
▁이런	-8.76634
▁책	-8.76675
▁만들기	-8.76899
▁광고	-8.76916
협회	-8.77246
▁디지털	-8.77246
▁강좌	-8.77381
▁속	-8.77446
▁남	-8.77564
▁발표	-8.77569
▁불	-8.77642
▁특강	-8.78002
규	-8.78339
▁대학	-8.78351
제작	-8.78425
윤	-8.78698
했다	-8.78801
되고	-8.78971
됩니다	-8.79077
습니다	-8.79358
공사	-8.79447
개발	-8.79481
▁콘텐츠	-8.79508
▁활용	-8.79574
▁또는	-8.79682
▁공무원	-8.79719
▁배	-8.798
예	-8.79991
on	-8.80091
▁b	-8.80137
▁관한	-8.80453
실기	-8.80602
음악	-8.80755
인스타그램	-8.80861
전문	-8.80938
pl	-8.81136
▁+	-8.8118
korea	-8.81332
라고	-8.81374
22	-8.81432
2020	-8.8146
▁있으며	-8.81538
송	-8.81548
병원	-8.81566
ᆞ	-8.81639
▁브이로그	-8.81729
수학	-8.81789
▁100	-8.8185
▁정보를	-8.81892
1.	-8.81997
프	-8.8209
ec	-8.82142
▁추천	-8.82374
▁영화	-8.82477
▁연합뉴스	-8.82545
▁no	-8.82676
▁사이언스	-8.82688
▁자	-8.83011
학년	-8.83028
▁생각	-8.83124
▁아래	-8.83127
▁전공	-8.8338
▁c	-8.8369
▁과학	-8.83704
교수	-8.83774
▁것은	-8.8378
과학	-8.83832
린	-8.83863
▁참여	-8.84103
키	-8.84232
네	-8.84259
▁글로벌	-8.84288
취업	-8.84397
증	-8.84408
ln	-8.84452
▁기	-8.8446
▁2017	-8.8447
투자	-8.84573
▁생활	-8.84732
▁내용	-8.8489
▁오늘	-8.85122
▁주요	-8.85132
▁노	-8.8516
▁게임	-8.85231
▁핵심	-8.85264
주차	-8.85284
▁구매	-8.85526
kbs	-8.8553
▁부산	-8.8573
순	-8.85773
지만	-8.85807
하면서	-8.85856
▁news	-8.86037
인터뷰	-8.86147
채널	-8.86152
▁자동차	-8.86154
▁왜	-8.86159
▁창업	-8.86204
▁교재	-8.8622
▁보기	-8.86245
▁p	-8.86334
환경	-8.86349
살	-8.86397
▁시스템	-8.86549
▁:)	-8.86707
▁업로드	-8.86719
생활	-8.8687
림	-8.86914
각	-8.87153
3.	-8.87342
▁channel	-8.87558
색	-8.87662
만원	-8.87711
edu	-8.87736
터	-8.88025
래	-8.88212
외	-8.88287
문제	-8.88664
통	-8.88694
말	-8.88771
관련	-8.88904
▁각	-8.89659
html	-8.89678
▁재	-8.89701
▁오후	-8.8987
▁연	-8.89905
▁18	-8.90165
▁건	-8.90255
▁공	-8.90365
사회	-8.9044
불	-8.90525
▁만드는	-8.90528
▁마케팅	-8.90544
▁기획	-8.90622
▁video	-8.90644
려	-8.90787
▁링크	-8.90812
▁해외	-8.90856
▁편	-8.90867
▁대해서	-8.90923
▁달	-8.90923
책	-8.91035
특강	-8.9115
mi	-8.91281
▁알고	-8.91373
ko	-8.91452
시스템	-8.91756
▁거	-8.91787
▁법	-8.91878
▁학교	-8.92032
학년도	-8.92087
네이버	-8.92147
▁단	-8.92409
▁하루	-8.92606
처럼	-8.92741
▁시청	-8.92772
▁www	-8.92791
▁교수님	-8.93057
▁명	-8.93207
▁제품	-8.93245
▁스포츠	-8.93397
▁된	-8.93493
▁16	-8.93676
안녕하세요	-8.93898
▁전략	-8.93907
운동	-8.93913
▁기자	-8.94121
▁회사	-8.94152
▁this	-8.94188
북	-8.94321
!!!	-8.94362
27	-8.94419
▁무료로	-8.94534
sz	-8.94667
▁컴퓨터	-8.94705
시장	-8.94753
설계	-8.94759
▁외	-8.948
es	-8.9489
이라고	-8.95017
▁볼	-8.95026
▁댓글	-8.95177
난	-8.95197
▁전국	-8.95323
면서	-8.95342
▁등의	-8.95387
▁s	-8.95424
▁풀이	-8.95655
▁편집	-8.95704
공인중개사	-8.95717
▁최근	-8.95757
화학	-8.95765
▁선	-8.95954
행	-8.9598
▁작업	-8.96029
▁마	-8.96158
봉	-8.96182
▁해설	-8.96183
▁직업	-8.96193
량	-8.96198
▁못	-8.9631
온라인	-8.96418
▁l	-8.96467
▁이후	-8.96555
안전	-8.96643
최	-8.96736
28	-8.96813
▁@	-8.96844
▁정리	-8.97006
▁설계	-8.97011
하지만	-8.97029
▁운동	-8.97075
ng	-8.97115
▁어	-8.97249
▁것입니다	-8.97257
▁자료	-8.97312
경영	-8.97348
시설	-8.97371
▁했습니다	-8.97472
님	-8.97549
블로그	-8.97684
곡	-8.97781
▁주식	-8.97924
매	-8.97981
▁간	-8.98031
랑	-8.98104
▁music	-8.98267
설	-8.98367
되어	-8.98469
main	-8.98621
▁차	-8.98695
이론	-8.9909
표	-8.99095
▁없이	-8.99178
▁해당	-8.99431
▁분	-8.99616
절	-8.99694
▁성	-8.998
립	-8.99866
▁홍보	-9.00003
▁피	-9.0007
▁정책	-9.0007
▁다음	-9.00137
달	-9.00283
▁정말	-9.00381
2019	-9.00446
▁2016	-9.00556
▁전기	-9.00713
공부	-9.00738
기초	-9.00739
en	-9.01165
▁가능	-9.01221
하다	-9.01273
기관	-9.01313
la	-9.01325
ebs	-9.01344
▁구성	-9.01361
산업기사	-9.01435
▁이용	-9.01659
▁추가	-9.01875
▁all	-9.0201
▁뒤	-9.02016
▁면접	-9.0218
▁21	-9.02268
전공	-9.02272
▁프로젝트	-9.02322
▁17	-9.02549
▁강의를	-9.02557
▁영상으로	-9.02611
▁f	-9.02627
▁바	-9.02658
▁필수	-9.02684
▁반	-9.02708
▁^^	-9.0282
과목	-9.02851
▁평가	-9.03098
속	-9.03152
▁이렇게	-9.03163
▁내용을	-9.03254
▁역사	-9.03352
이라는	-9.03443
▁있고	-9.03565
▁일상	-9.03576
▁문	-9.03682
▁제가	-9.03685
항	-9.03748
연구	-9.03935
루	-9.04003
전문가	-9.04057
26	-9.0409
작	-9.0409
org	-9.04162
uc	-9.04228
▁다운로드	-9.04261
▁너무	-9.04313
sa	-9.04438
▁있을	-9.04526
▁안전	-9.04579
▁보	-9.04651
덕	-9.04717
부동산	-9.04957
▁손	-9.04999
▁자세한	-9.05001
▁물	-9.05017
▁공유	-9.0504
입	-9.05164
▁이벤트	-9.05215
창업	-9.05435
우리	-9.05715
▁임	-9.05745
했던	-9.05759
▁카카오톡	-9.05844
▁여러	-9.05893
쌤	-9.05936
▁질문	-9.06149
분야	-9.06366
날	-9.06427
▁13	-9.06615
▁14	-9.06753
채	-9.06786
▁경	-9.06789
is	-9.06817
▁일반	-9.06887
▁활동	-9.07004
▁아닌	-9.07005
추	-9.07012
▁실습	-9.07046
▁조사	-9.07115
▁발	-9.07299
▁알	-9.07304
▁원문	-9.07401
마케팅	-9.07409
daum	-9.07521
---------------	-9.07536
▁동	-9.07757
수업	-9.07818
▁건축	-9.07915
▁가운데	-9.08137
씨	-9.08143
▁실무	-9.08226
▁줄	-9.08293
하세요	-9.08352
▁드립니다	-9.08391
동영상	-9.08399
들에게	-9.08422
▁경영	-9.08451
29	-9.08623
▁찾아	-9.08654
▁구조	-9.08873
▁q	-9.08922
▁선택	-9.09025
국제	-9.09039
▁날	-9.09294
찬	-9.09379
▁중요한	-9.09394
기획	-9.09658
▁스마트	-9.09677
playlist	-9.09764
홍	-9.09898
2021	-9.09932
합격	-9.10231
됐습니다	-9.10232
좋아요	-9.10394
▁않고	-9.10427
=&	-9.10514
정책	-9.10586
▁표현	-9.10669
▁인강	-9.10884
▁가지고	-9.10914
st	-9.11101
▁않습니다	-9.11181
▁발전	-9.11201
▁실제	-9.11234
출	-9.11273
▁미술	-9.11291
~!	-9.11357
▁판매	-9.11496
강좌	-9.11575
▁최고의	-9.11697
▁강연	-9.11817
공학	-9.11818
▁at	-9.11821
범	-9.11894
▁있어	-9.11994
▁점	-9.12058
▁위	-9.12092
주의	-9.12147
?!	-9.12153
▁개념	-9.12175
page	-9.12241
▁또한	-9.12364
전략	-9.12514
▁이어	-9.12636
▁최대	-9.12715
여행	-9.12768
▁설치	-9.13007
▁건강	-9.13021
함	-9.13128
▁스	-9.13228
왕	-9.13344
▁주세요	-9.13355
▁성공	-9.13477
▁데이터	-9.13572
▁24	-9.13785
▁작성	-9.13826
▁한다	-9.13857
치료	-9.13873
▁만든	-9.13883
▁같이	-9.14036
▁백	-9.14125
브이로그	-9.14248
▁이야기를	-9.14299
서비스	-9.1434
▁온	-9.14482
▁우	-9.14642
ytb	-9.14658
교사	-9.14715
▁동안	-9.14738
▁정부	-9.14763
알	-9.14785
▁2015	-9.14884
book	-9.14909
▁개인	-9.14913
▁가능합니다	-9.14933
▁않은	-9.15173
▁인터넷	-9.15231
▁업무	-9.15296
훈	-9.1534
▁ep	-9.15441
.*	-9.15662
lecture	-9.15741
▁50	-9.15747
암	-9.15875
▁시장	-9.16086
▁문제풀이	-9.16104
▁성장	-9.1612
▁0	-9.16203
▁re	-9.16332
평가	-9.16382
▁추진	-9.16408
▁후원	-9.16447
▁있어요	-9.16456
카페	-9.16623
부산	-9.16765
▁사이트	-9.1684
이며	-9.16885
jtbc	-9.17004
▁수학	-9.17029
촬영	-9.17042
31	-9.17057
▁현대	-9.17124
지도	-9.17124
▁최신	-9.17154
▁예정입니다	-9.17155
▁경기	-9.17156
ro	-9.17191
돼	-9.17221
▁황	-9.17252
버	-9.17309
▁데	-9.17316
▁채용	-9.17432
▁통한	-9.17437
결	-9.17526
▁전체	-9.17537
▁하겠습니다	-9.17596
총	-9.1765
▁송	-9.17811
오늘은	-9.17838
▁겁니다	-9.17841
▁열	-9.17853
▁않는	-9.17855
th	-9.17907
까	-9.17913
▁취득	-9.17963
교재	-9.17968
][	-9.18044
index	-9.1814
게임	-9.18375
▁시대	-9.18498
▁기계	-9.18542
▁r	-9.18619
▁소개합니다	-9.18659
▁좀	-9.18763
▁높은	-9.18805
단계	-9.18958
품	-9.19042
손	-9.19074
▁하나	-9.19088
있는	-9.19124
▁반도체	-9.19125
담	-9.19182
처	-9.19186
▁예술	-9.19331
mo	-9.19357
cm	-9.1942
기계	-9.19472
락	-9.1979
▁치료	-9.19985
▁검색	-9.20035
면접	-9.20083
▁없습니다	-9.20092
▁게	-9.20257
key	-9.20352
▁라이브	-9.20409
▁g	-9.20432
▁계속	-9.20478
이란	-9.20496
균	-9.20783
▁항공	-9.2091
막	-9.20948
투	-9.20987
▁관심	-9.21037
▁알려드립니다	-9.21219
▁의료	-9.21238
공무원	-9.21352
▁에너지	-9.21437
▁내용은	-9.2157
링	-9.21574
▁결과	-9.21577
▁모바일앱	-9.21638
100	-9.21654
▁선생님	-9.2167
앤	-9.21694
▁등록	-9.21757
▁사고	-9.21909
▁식품	-9.21925
▁전화	-9.22127
code	-9.22138
▁졸업	-9.22218
▁싶은	-9.22266
전기	-9.22355
()	-9.2249
▁금	-9.22567
▁전시	-9.22642
▁변화	-9.22823
▁올해	-9.22941
▁대상	-9.2309
▁밝혔습니다	-9.23225
지는	-9.23307
▁병원	-9.23348
▁처음	-9.23467
▁바탕으로	-9.23581
▁분야	-9.23602
sub	-9.23617
건축	-9.23769
▁영	-9.23921
▁선정	-9.23946
▁힘이	-9.23955
감사합니다	-9.2399
예술	-9.24289
gevs	-9.24362
▁#2424	-9.24376
들과	-9.24462
▁여행	-9.2479
▁방	-9.2479
카카오톡	-9.25011
망	-9.25031
▁앞으로	-9.2514
▁작품	-9.25207
▁드론	-9.25217
▁사진	-9.25226
▁전망	-9.2523
미국	-9.25249
ka	-9.25328
▁사례	-9.2553
▁심	-9.2558
위원회	-9.2559
삼	-9.25633
는데	-9.25757
▁기자가	-9.25824
▁있다고	-9.25839
▁하지만	-9.25886
추천	-9.25942
▁이제	-9.25958
제품	-9.26023
액	-9.26122
▁도시	-9.26175
▁무단	-9.26439
향	-9.26514
le	-9.26878
▁여성	-9.26944
se	-9.27479
soundcloud	-9.27484
as	-9.27494
▁최고	-9.27522
kisa	-9.2756
▁more	-9.27665
학기	-9.2798
미디어	-9.28002
▁포	-9.28062
보험	-9.28326
ti	-9.28347
de	-9.28367
▁받고	-9.2844
▁더욱	-9.28532
▁개	-9.28534
미술	-9.28576
▁영상이	-9.28751
죠	-9.28859
▁확대	-9.28864
ai	-9.28924
▁번	-9.28984
▁학과	-9.29099
user	-9.29106
da	-9.29115
▁박사	-9.29136
언	-9.293
▁화	-9.29338
▁따른	-9.29608
필기	-9.29643
▁we	-9.29703
▁윤	-9.29711
구조	-9.29733
▁적용	-9.298
▁타	-9.29902
▁me	-9.29996
▁유통	-9.29999
▁하면	-9.30067
▁are	-9.30168
훈련	-9.30234
▁vlog	-9.30376
항공	-9.30419
황	-9.305
숙	-9.30621
▁주소	-9.30662
live	-9.30684
▁사람	-9.3075
▁살	-9.30814
포럼	-9.30859
▁업체	-9.30989
▁디자이너	-9.31078
ma	-9.31175
기를	-9.31207
퍼	-9.31232
▁작가	-9.31234
▁중국어	-9.31235
▁인천	-9.31265
▁수강	-9.31346
▁방문	-9.31377
▁제조	-9.31471
4.	-9.31485
이야기	-9.31546
▁대응	-9.31651
인강	-9.31732
▁정도	-9.31737
네요	-9.31777
▁앱	-9.31825
세계	-9.31901
때	-9.31941
▁실시간	-9.31995
▁여러분의	-9.32076
아카데미	-9.32178
▁계획	-9.32242
▁매주	-9.32397
▁주제	-9.32399
vlog	-9.3245
실무	-9.32469
na	-9.32514
▁산	-9.32515
▁발생	-9.32524
▁특히	-9.32672
▁새	-9.3272
에서도	-9.32768
그리고	-9.3277
▁출연	-9.32877
oc	-9.32961
소개	-9.33017
▁가입	-9.3307
거나	-9.33074
▁수능	-9.33171
▁보는	-9.33252
▁학생	-9.33299
▁되고	-9.33317
▁받아	-9.33355
▁직무	-9.33358
▁고민	-9.33433
~~	-9.33604
▁여	-9.33617
또	-9.33719
령	-9.33757
▁that	-9.33836
▁vs	-9.33891
▁t	-9.33909
스포츠	-9.33911
개월	-9.34036
▁파	-9.34067
▁꿀팁	-9.34108
대전	-9.34167
bitly	-9.342
울	-9.3429
▁밤	-9.3443
▁가능한	-9.34587
▁x	-9.346
보기	-9.34641
학개론	-9.34658
▁이를	-9.34766
▁있다는	-9.34822
프로그램	-9.34862
쇼	-9.35018
▁예	-9.35113
▁함께하는	-9.35359
▁강화	-9.35376
▁만들	-9.35384
▁이메일	-9.35404
▁통합	-9.35433
▁오전	-9.35631
극	-9.3576
▁패션	-9.35822
▁과제	-9.35885
▁국민	-9.35902
▁금융	-9.35927
년도	-9.35943
▁sbs	-9.3596
일반	-9.35999
그룹	-9.36008
▁종목	-9.36068
▁수출	-9.36073
라인	-9.36105
▁아이	-9.36126
전자	-9.36189
아이	-9.36226
▁개선	-9.36306
▁해야	-9.36343
다고	-9.3636
▁호	-9.36617
▁40	-9.36639
▁원장	-9.36687
▁인	-9.36689
브	-9.36776
▁as	-9.36792
▁해양	-9.3681
kim	-9.36825
옥	-9.36848
ho	-9.36872
▁사랑	-9.36889
▁장비	-9.36946
▁my	-9.36999
▁번째	-9.37028
▁되어	-9.37184
▁오늘은	-9.37249
▁de	-9.37271
제도	-9.37293
욱	-9.37302
▁보안	-9.37317
애	-9.37381
학습	-9.37395
▁체험	-9.37508
▁결정	-9.3758
국내	-9.37598
증권	-9.37652
▁경험	-9.37662
▁from	-9.37682
▁댓글로	-9.37717
50	-9.37773
조사	-9.37776
▁로봇	-9.37814
▁일부	-9.37857
▁m	-9.37868
/1	-9.37885
활동	-9.37977
▁기준	-9.37986
워	-9.38005
▁물론	-9.38042
독	-9.38078
▁설정	-9.38082
대표	-9.3817
▁변	-9.38201
eb	-9.38322
▁ai	-9.38329
▁브랜드	-9.38414
▁구축	-9.38435
너	-9.38478
▁들어	-9.3851
사진	-9.38587
ic	-9.38594
2018	-9.38651
자료	-9.38911
▁방법을	-9.38925
▁알려주는	-9.38933
▁북한	-9.39014
!#	-9.39085
▁youtube	-9.39092
기능사	-9.39097
feat	-9.39265
▁part	-9.39285
▁답변	-9.39299
▁분들	-9.39349
격	-9.39353
무료	-9.39359
▁25	-9.39819
▁진	-9.39824
빈	-9.39852
▁강의입니다	-9.39879
▁여러분	-9.39886
▁비교	-9.39971
학부	-9.40042
▁등에	-9.40101
계획	-9.40145
ta	-9.40178
스트	-9.40214
▁관련된	-9.40279
▁입	-9.40331
▁난	-9.40405
번째	-9.40481
up	-9.40655
▁건설	-9.40731
▁만	-9.40764
▁가지	-9.40794
▁집	-9.40802
▁세미나	-9.40971
▁d	-9.40984
▁오픈	-9.41232
00	-9.41285
▁행사	-9.41338
ns	-9.4142
▁기사원문	-9.41576
ha	-9.41608
▁필요	-9.41709
▁기능	-9.4171
장비	-9.41738
▁관광	-9.4182
실습	-9.4186
▁각종	-9.41879
변	-9.41888
im	-9.41907
▁010-	-9.42186
▁컨설팅	-9.42382
료	-9.42447
▁이동	-9.42502
명이	-9.42714
join	-9.42734
▁공연	-9.4299
▁ebs	-9.43064
년간	-9.43083
인데요	-9.43242
현장	-9.43248
▁분들이	-9.43283
sk	-9.43345
ra	-9.43369
일본	-9.43454
▁경기도	-9.43458
▁입시	-9.4354
home	-9.43591
▁배우	-9.43598
많은	-9.43727
▁검사	-9.43752
▁웹	-9.4387
product	-9.43908
▁페이지	-9.43957
완	-9.43992
차시	-9.44119
디자이너	-9.44183
et	-9.44193
▁교사	-9.44251
▁제대로	-9.44289
자가	-9.44304
▁빠르게	-9.44371
▁your	-9.44776
공학과	-9.44781
지금	-9.44852
인데	-9.44916
▁연습	-9.44924
▁보세요	-9.44987
by	-9.45
official	-9.45031
-1	-9.45073
▁진로	-9.45118
▁한번	-9.45182
my	-9.45192
mc	-9.45272
▁카톡	-9.45331
bo	-9.45374
▁상황	-9.45396
art	-9.45425
설비	-9.45501
금융	-9.45509
행사	-9.45515
▁us	-9.45595
▁싶다면	-9.45601
▁can	-9.45608
sc	-9.45635
▁먼저	-9.45668
▁경찰	-9.45688
▁구독과	-9.45814
▁모바일	-9.45876
el	-9.46031
바이오	-9.46058
▁눌러주세요	-9.46117
코리아	-9.4616
▁과정을	-9.4619
48	-9.46207
pc	-9.46244
중국	-9.46286
져	-9.46324
및	-9.46445
▁직원	-9.46502
익	-9.46505
▁01	-9.46572
▁화학	-9.46576
▁or	-9.46601
▁참고	-9.46617
▁미디어	-9.46709
▁어려운	-9.46733
google	-9.46864
율	-9.46919
건설	-9.46933
▁공급	-9.46934
하시는	-9.47037
hi	-9.4708
섭	-9.47084
줄	-9.47148
술	-9.47163
편집	-9.47223
▁일본어	-9.47258
도시	-9.47355
▁분들은	-9.4742
▁청소년	-9.47421
▁호텔	-9.47424
고등학교	-9.47466
영화	-9.47513
di	-9.4765
기술사	-9.47703
▁홍보영상	-9.47705
오늘	-9.47726
대회	-9.47829
없이	-9.47836
교회	-9.47925
▁특별	-9.48024
mail	-9.48129
ga	-9.48386
직업	-9.48394
기간	-9.48431
미래	-9.48484
대한민국	-9.48598
▁기출	-9.48717
ri	-9.48718
▁이용한	-9.48725
▁궁금한	-9.48787
▁청	-9.48839
글	-9.48874
io	-9.48915
스타	-9.48922
작가	-9.48929
▁특징	-9.48943
하였습니다	-9.48959
▁공간	-9.48969
▁대구	-9.48992
콘텐츠	-9.49154
▁홍	-9.4916
(1)	-9.49239
**	-9.4924
식품	-9.4932
인지	-9.49514
▁개최	-9.49667
▁학원	-9.49827
▁혁신	-9.49873
▁고객	-9.49899
갈	-9.49899
작업	-9.49926
대로	-9.49938
취	-9.49968
▁노력	-9.5005
▁시리즈	-9.50104
ki	-9.50105
주는	-9.50247
복지	-9.50251
▁그런	-9.50253
▁현	-9.50258
▁삼	-9.50312
▁종합	-9.50317
▁전통	-9.50492
발전	-9.50512
▁최종	-9.50525
mm	-9.50572
▁있는데요	-9.5061
|	-9.50628
▁커뮤니티	-9.5069
준비	-9.50735
텍	-9.50741
an	-9.50758
▁기관	-9.50791
대학원	-9.50792
▁사실	-9.50908
40	-9.50923
▁완성	-9.5093
▁우리나라	-9.51115
▁집중	-9.51155
시대	-9.51286
▁적	-9.51374
▁지식	-9.51375
▁리	-9.51517
▁천	-9.51539
▁시설	-9.51541
▁sns	-9.51582
든	-9.5169
내용	-9.51799
▁크게	-9.51952
▁가족	-9.51991
▁실	-9.52026
헌	-9.52145
▁보다	-9.52194
▁지난해	-9.52222
축	-9.52321
▁비즈니스	-9.52325
건강	-9.52329
▁해결	-9.52377
ry	-9.52421
자동차	-9.52559
ve	-9.52565
필	-9.52724
▁자연	-9.52834
▁22	-9.52879
에너지	-9.52903
▁저희	-9.52981
track	-9.52985
ar	-9.53001
cs	-9.53006
▁허	-9.53052
풍	-9.53061
▁provided	-9.53087
▁길	-9.53165
▁마련	-9.53378
▁korean	-9.53442
▁도전	-9.53855
▁농업	-9.53926
for	-9.53965
안내	-9.5398
중국어	-9.53984
▁같습니다	-9.54098
새	-9.54194
올	-9.54241
▁경력	-9.54241
단체	-9.54261
지도사	-9.54292
니다	-9.54399
▁전자	-9.54408
▁be	-9.54436
하실	-9.54546
▁영상의	-9.54554
▁v	-9.54725
so	-9.54817
▁화장품	-9.54828
▁있다면	-9.54912
하거나	-9.54925
▁중심으로	-9.54981
▁배우는	-9.55054
il	-9.55077
▁기대	-9.55097
해요	-9.55169
▁공공	-9.55183
pd	-9.55265
정부	-9.55283
▁장애인	-9.5535
되지	-9.55351
pr	-9.55368
▁아동	-9.55381
sh	-9.55392
▁기술을	-9.55467
▁증가	-9.55475
te	-9.55568
▁만큼	-9.55581
▁매일	-9.55788
▁맞는	-9.55938
다는	-9.55938
보고	-9.55943
▁만나	-9.55983
▁군	-9.56015
▁실전	-9.56037
▁자세히	-9.56107
▁제주	-9.56171
▁공공기관	-9.56251
▁시간을	-9.56314
어요	-9.56454
하신	-9.5649
볼	-9.56492
11.	-9.56663
의료	-9.56783
32	-9.56909
가공	-9.5694
yes	-9.56989
585@	-9.57013
▁기간	-9.57103
주택	-9.57122
▁도입	-9.57135
mcd	-9.5716
신청	-9.5717
커	-9.57173
탈	-9.57245
돈	-9.57366
▁관계	-9.57369
검사	-9.57408
▁영업	-9.57423
▁진짜	-9.57433
세요	-9.57504
택	-9.57542
▁참	-9.57602
detail	-9.57678
체험	-9.57685
▁우주	-9.57787
▁채	-9.57793
사랑	-9.57897
ju	-9.57914
▁리뷰	-9.58039
▁바이오	-9.58102
공식	-9.58108
▁마지막	-9.5814
혁	-9.58223
종목	-9.58247
질문	-9.5828
아트	-9.58287
악	-9.58302
▁있게	-9.58331
학회	-9.58344
ce	-9.58383
▁훈련	-9.58411
▁대상으로	-9.58474
▁컨텐츠	-9.58501
▁시행	-9.58554
▁있지만	-9.58556
하시면	-9.58557
ca	-9.58669
▁사회복지사	-9.58693
▁매	-9.58765
▁귀	-9.58823
am	-9.5889
ja	-9.58921
km	-9.58928
▁플랫폼	-9.58968
▁대전	-9.58976
기준	-9.59037
▁보호	-9.5909
▁소비자	-9.59266
▁조금	-9.59426
사항	-9.59555
gi	-9.59603
▁기자입니다	-9.59689
▁대입	-9.597
농	-9.598
band	-9.59906
이고	-9.59919
▁쉬운	-9.59942
▁이미	-9.59986
▁곳	-9.60016
▁instagram	-9.60029
공간	-9.60046
▁선박	-9.60137
충	-9.60191
▁연구소	-9.60226
▁과목	-9.60256
ea	-9.60256
vo	-9.60295
▁절대	-9.60364
all	-9.60408
해주세요	-9.60465
구독과	-9.60512
▁친구	-9.60541
▁조성	-9.60601
골	-9.6066
▁공동	-9.60697
것	-9.60815
혜	-9.60828
▁클릭	-9.60881
ge	-9.61023
▁23	-9.61074
▁한국어	-9.61103
ir	-9.61409
▁북	-9.61484
▁러시아	-9.61577
asp	-9.61617
▁그림	-9.61702
pa	-9.61761
인테리어	-9.61765
▁설명회	-9.61809
재료	-9.61884
지난	-9.61894
▁2014	-9.62007
컨설팅	-9.62008
▁토목기사	-9.62056
un	-9.62073
▁반드시	-9.62121
▁인공지능	-9.62177
▁돈	-9.62179
▁당	-9.62198
▁하지	-9.62357
▁design	-9.62361
35	-9.62366
주세요	-9.62407
lg	-9.6247
▁예정	-9.62478
▁실험	-9.62484
38	-9.62485
▁언어	-9.62528
▁지도	-9.62554
dc	-9.62569
▁강의는	-9.62657
34	-9.62725
▁일을	-9.62763
▁코	-9.62814
맨	-9.62839
lo	-9.62887
긴	-9.63075
ent	-9.63089
▁신규	-9.63097
▁일정	-9.631
관광	-9.63162
60	-9.63202
▁등이	-9.63367
▁보면	-9.6346
▁항상	-9.63473
학생	-9.63501
ers	-9.63629
▁하기	-9.6368
po	-9.63715
ji	-9.63765
▁종류	-9.63818
▁노래	-9.63918
합	-9.63962
job	-9.64066
cc	-9.64169
하자	-9.64235
댄스	-9.64268
su	-9.64302
▁아주	-9.64324
▁되었습니다	-9.64389
▁기록	-9.64393
홍보	-9.64441
▁pro	-9.64468
ad	-9.64472
프로	-9.64517
▁ᅵ	-9.64528
smartstore	-9.64581
ne	-9.64585
▁so	-9.64608
?[	-9.64638
▁이슈	-9.64703
▁위해서	-9.64745
으면	-9.64792
▁몇	-9.64811
▁판단	-9.64817
33	-9.64929
▁목	-9.65034
▁무료인강	-9.65213
걸	-9.65233
/?	-9.65279
▁어느	-9.65369
교시	-9.65428
ation	-9.65466
▁서울시	-9.65466
▁받을	-9.65546
▁협력	-9.65787
▁누구나	-9.65815
▁걸	-9.65956
▁소재	-9.66
▁회장	-9.66058
▁행복	-9.66117
ep	-9.66161
bc	-9.66292
▁주제로	-9.663
▁100%	-9.66328
▁연기	-9.66412
▁좋겠습니다	-9.6643
ss	-9.66461
▁전환	-9.66499
▁꽃	-9.66531
ex	-9.66571
▁남겨주세요	-9.66582
▁통해서	-9.66637
▁씨	-9.66717
성을	-9.66738
하는데	-9.66777
잡	-9.66809
킹	-9.66852
▁있는지	-9.66898
▁와이티	-9.66935
▁우리가	-9.67003
ck	-9.67017
▁암	-9.67052
▁의미	-9.67054
we	-9.67087
만들기	-9.67104
app	-9.67107
소리	-9.67127
하겠습니다	-9.67141
공연	-9.67166
ci	-9.67168
board	-9.67234
▁있어서	-9.67367
52	-9.6738
테	-9.67393
▁사회적	-9.67406
▁끝	-9.67411
▁문제가	-9.67437
ib	-9.67446
▁국어	-9.67473
▁문제를	-9.67546
▁lg	-9.67559
▁의사	-9.67586
ba	-9.67596
놀이	-9.67633
ps	-9.67638
이라	-9.67658
캠퍼스	-9.67661
science	-9.6768
테크	-9.67871
▁new	-9.67987
man	-9.68169
▁열심히	-9.68185
인천	-9.68245
▁2013	-9.68248
▁보시고	-9.68254
kg	-9.683
▁인사	-9.68389
국가	-9.68407
▁기타	-9.68417
▁동물	-9.68438
▁프로	-9.68445
36	-9.68461
경기	-9.68509
one	-9.68544
현재	-9.68559
gu	-9.68574
)[	-9.68577
▁an	-9.68618
▁포함	-9.68623
99	-9.6868
han	-9.687
)*	-9.68716
▁잡	-9.6878
(2)	-9.688
ok	-9.68877
츠	-9.68899
▁요약	-9.68919
▁청년	-9.68922
▁수상	-9.68939
▁치	-9.6902
??	-9.69117
▁어린이	-9.69166
▁확산	-9.69172
귀	-9.69192
▁매우	-9.69235
▁소식	-9.69273
▁인증	-9.69289
▁top	-9.69318
▁당시	-9.69398
ol	-9.6947
95	-9.69477
효	-9.69576
곳	-9.69612
▁차량	-9.69652
-2	-9.69692
lee	-9.69721
션	-9.69741
free	-9.69819
▁모집	-9.69839
▁작은	-9.70116
▁갈	-9.7021
▁측정	-9.70308
시는	-9.70327
▁인해	-9.70409
자원	-9.70466
▁대통령	-9.70487
▁영상에	-9.70499
▁up	-9.70519
42	-9.70535
▁기억	-9.70542
▁권	-9.7058
▁수도	-9.70654
▁출처	-9.70704
베	-9.70882
▁해석	-9.70917
재단	-9.70952
▁현실	-9.70961
▁이전	-9.70994
▁쉽고	-9.71001
▁처리	-9.7106
착	-9.71095
겠습니다	-9.71118
▁소통	-9.71125
스쿨	-9.7114
si	-9.71159
▁광주	-9.71219
▁활용한	-9.7125
▁내가	-9.71267
fa	-9.71282
▁예방	-9.71288
mk	-9.71433
없는	-9.71554
대구	-9.71686
nt	-9.71704
▁자주	-9.71722
입시	-9.71746
▁재료	-9.71809
▁제도	-9.71921
▁27	-9.71947
▁애니메이션	-9.72021
▁교수님의	-9.72035
염	-9.72063
▁조직	-9.72107
돌	-9.72163
▁내용이	-9.72198
▁보실	-9.72199
디지털	-9.7224
블	-9.72324
▁도서	-9.72343
▁토	-9.72367
▁world	-9.72401
94	-9.7241
문학	-9.72449
▁연결	-9.72471
▁국	-9.72529
▁해설강의	-9.7253
▁말하는	-9.72534
▁단체	-9.72542
▁공사	-9.72734
▁진단	-9.72806
이상	-9.72881
43	-9.72948
mp	-9.72951
▁sk	-9.72964
▁n	-9.72975
▁대하여	-9.72988
▁02	-9.73031
기출문제	-9.73059
▁점검	-9.73084
▁시공	-9.73164
님의	-9.73176
▁광	-9.73232
▁소방	-9.73289
플	-9.73339
▁응용	-9.73413
▁그래서	-9.73469
조선	-9.73491
▁있는데	-9.73515
▁국립	-9.73533
대상	-9.73537
모든	-9.73583
▁시간이	-9.73612
사이트	-9.73623
▁자기	-9.73659
출처	-9.73692
▁제공하는	-9.73751
었습니다	-9.73768
▁교	-9.7381
mbn	-9.73817
min	-9.73914
친	-9.73922
41	-9.73979
출연	-9.74073
▁되	-9.74145
▁받은	-9.74418
대비	-9.74437
▁구입	-9.74455
▁친환경	-9.74497
로서	-9.74499
▁직	-9.74522
▁상품	-9.74525
▁감사	-9.74574
▁할인	-9.74576
▁소프트웨어	-9.74676
bbs	-9.74718
종합	-9.74724
▁노하우	-9.74785
▁근무	-9.74814
장소	-9.74814
▁요즘	-9.74815
▁팔	-9.74832
들도	-9.749
ds	-9.74917
▁live	-9.74925
▁발견	-9.75001
역사	-9.75006
보는	-9.75074
광주	-9.75107
▁03	-9.75111
▁추	-9.75127
▁끝까지	-9.75148
▁인테리어	-9.75155
자세한	-9.75165
싱	-9.75192
▁수입	-9.75277
▁전재	-9.75375
머	-9.75496
후원	-9.75562
▁중소기업	-9.75587
pe	-9.75598
밀	-9.75642
▁변경	-9.75649
▁소장	-9.75661
lab	-9.75789
가요	-9.75898
2016	-9.76003
글로벌	-9.76069
웅	-9.7609
ie	-9.76107
▁보입니다	-9.76113
ts	-9.76119
도록	-9.76122
릴	-9.76147
▁공정	-9.76179
ms	-9.76184
▁프로그래밍	-9.7624
▁저작권은	-9.76246
▁do	-9.76274
▁유지	-9.76302
▁요청	-9.76347
▁모델	-9.7636
▁한국경제	-9.76399
다음	-9.76415
▁28	-9.76487
특히	-9.76544
체육	-9.76568
운영	-9.76587
▁마무리	-9.76659
공장	-9.76704
kor	-9.76728
▁사람이	-9.76752
▁free	-9.76763
▁how	-9.76778
▁역시	-9.76796
um	-9.76854
일상	-9.76989
▁26	-9.77039
▁아직	-9.77055
▁french	-9.77088
▁감	-9.77159
▁첨단	-9.77204
hcd	-9.77294
▁특수	-9.77362
▁부분	-9.77365
경찰	-9.77454
▁듣고	-9.77538
▁수리	-9.77542
마다	-9.77566
리포트	-9.77675
▁상승	-9.77698
▁올	-9.77712
▁전달	-9.77773
나무	-9.77821
으	-9.77825
생산	-9.77836
반도체	-9.7784
능력	-9.77891
▁링크를	-9.77953
▁plus	-9.77972
쳐	-9.78026
혁신	-9.78061
▁애	-9.78099
1)	-9.78116
pro	-9.7817
▁건물	-9.782
▁대형	-9.78207
▁문법	-9.78215
압	-9.78249
▁풀어	-9.78297
)#	-9.78308
록	-9.78323
▁넘어	-9.78356
jo	-9.78377
▁보내	-9.78407
이벤트	-9.78453
▁월	-9.78469
▁쓰	-9.78791
슬	-9.78838
▁조선	-9.78842
▁사용하는	-9.78875
▁양성	-9.78956
곤	-9.78976
▁out	-9.79014
감독	-9.79028
▁수시	-9.79042
인가	-9.79059
eng	-9.79109
하시고	-9.79153
▁이미지	-9.79199
▁장소	-9.79237
cd	-9.79242
자의	-9.79256
▁출제	-9.79291
플러스	-9.79368
쪽	-9.79425
례	-9.79464
▁social	-9.79478
흥	-9.79512
꽃	-9.79524
견	-9.79526
제보	-9.7962
패션	-9.797
▁가격	-9.79772
▁오는	-9.79774
▁스마트폰	-9.7978
이자	-9.79781
▁피해	-9.79796
▁만나보세요	-9.79837
했고	-9.79848
팅	-9.79875
shop	-9.79885
씩	-9.79889
제가	-9.79951
▁나오는	-9.79993
▁예상	-9.80023
▁연구원	-9.80042
하라	-9.80062
하나	-9.8012
▁남자	-9.80196
▁풀	-9.80236
▁백신	-9.80322
▁계획입니다	-9.80388
하도록	-9.80392
▁기반	-9.80395
class	-9.80413
▁무역	-9.80427
인증	-9.80482
▁mbc	-9.8055
li	-9.80622
▁사건	-9.80778
72	-9.80811
컴퓨터	-9.809
▁눈	-9.80965
00:00	-9.81009
침	-9.81018
톤	-9.8106
▁태	-9.81078
전화	-9.81082
song	-9.81096
명을	-9.81146
ct	-9.8116
▁가치	-9.81258
):	-9.81259
45	-9.81319
▁입학	-9.81397
▁받는	-9.81419
77	-9.81433
▁삼성	-9.81434
해외	-9.81442
▁h	-9.81443
▁불법	-9.81619
▁만에	-9.8171
로부터	-9.81729
▁our	-9.81744
▁알려	-9.81834
▁고급	-9.81846
년부터	-9.81867
▁정치	-9.81877
▁역	-9.81903
(1	-9.81922
은행	-9.82026
재활	-9.8206
모델	-9.82098
등급	-9.8218
▁아니	-9.82302
▁시험대비	-9.82312
▁힘	-9.82319
▁공장	-9.82342
▁토론	-9.82365
▁역할을	-9.82413
ul	-9.82433
되었습니다	-9.82442
▁얼마나	-9.82509
▁별	-9.82523
소방	-9.82544
지고	-9.82618
▁책임	-9.82637
▁앞	-9.82649
▁정의	-9.8265
▁소중한	-9.82698
nd	-9.82828
ist	-9.82832
트위터	-9.82862
▁생방송	-9.82865
▁pc	-9.8287
함께	-9.82927
일본어	-9.83056
▁시민	-9.83138
2017	-9.83155
44	-9.83202
사고	-9.83235
▁환자	-9.83244
협	-9.83259
▁응원합니다	-9.83304
yonhapnewstv	-9.83305
▁없다	-9.83347
▁가진	-9.83362
영상을	-9.83413
▁알아야	-9.83511
if	-9.8358
:20	-9.83588
2015	-9.83616
▁듣기	-9.83645
▁트위터	-9.83751
거리	-9.83779
▁프로그램을	-9.83805
존	-9.83807
mj	-9.83847
세기	-9.83901
96	-9.83945
▁솔루션	-9.83946
▁물류	-9.83965
▁변호사	-9.83978
▁것이다	-9.83997
▁민	-9.84008
칠	-9.84015
▁60	-9.84052
좋은	-9.84145
영업	-9.84209
족	-9.84217
▁네	-9.84248
몰	-9.84306
개의	-9.84329
▁자체	-9.84342
올배움	-9.84348
ty	-9.84375
▁말씀	-9.84418
sw	-9.84457
름	-9.8448
가족	-9.84485
▁확보	-9.84516
폐	-9.84582
▁방안	-9.84593
▁일자리	-9.84614
국어	-9.84777
협력	-9.8479
▁좋아	-9.84818
▁자신의	-9.84821
▁논의	-9.84837
▁막	-9.84839
▁저녁	-9.84844
▁go	-9.84891
seoul	-9.84911
과제	-9.84938
▁카	-9.84949
정리	-9.84975
▁위치	-9.85001
▁관계자	-9.85098
▁행정	-9.8518
했다고	-9.85244
메일	-9.85246
▁전에	-9.8525
url	-9.85279
▁피부	-9.85347
아동	-9.8535
▁videos	-9.85415
일까지	-9.85429
촌	-9.85444
▁기본이론	-9.85523
▁미리	-9.85646
▁저는	-9.85648
▁방역	-9.85747
지식	-9.85825
▁사람들이	-9.85899
▁쓰는	-9.8591
;	-9.8592
▁종	-9.85921
또한	-9.85933
▁인식	-9.86002
▁최초	-9.86012
나요	-9.86045
른	-9.86082
사용	-9.86094
쿠	-9.86119
하기로	-9.86154
97	-9.862
육	-9.86209
▁뇌	-9.86267
▁응원	-9.86277
▁수준	-9.86288
course	-9.86314
가는	-9.86352
ks	-9.8637
장애	-9.86375
▁확인하세요	-9.86384
에듀	-9.86397
일부터	-9.86401
관계	-9.86402
▁시즌	-9.86404
39	-9.86463
▁기존	-9.86475
유통	-9.86485
무역	-9.86514
▁후기	-9.86525
엽	-9.86626
▁수행	-9.86641
▁이유는	-9.86652
kc	-9.86675
gg	-9.86683
이지만	-9.86691
▁rights	-9.86772
▁브금대통령	-9.86779
▁메일	-9.86808
ru	-9.86812
▁유형	-9.8682
va	-9.86873
▁reserved	-9.86903
ll	-9.8693
개인	-9.86954
▁내부	-9.86959
▁투	-9.87015
▁통	-9.87084
confirmation	-9.8712
▁독일	-9.87178
▁속에서	-9.87219
다양한	-9.87285
pk	-9.87319
▁글	-9.87325
비용	-9.87334
▁보도합니다	-9.87368
채용	-9.87449
▁관심이	-9.87467
▁2012	-9.87494
랩	-9.87502
데요	-9.87665
ke	-9.87679
명의	-9.87738
처리	-9.87808
coupa	-9.87836
로봇	-9.87955
▁있을까요	-9.87973
▁비밀	-9.87987
발표	-9.88068
▁모음	-9.88084
하고자	-9.88111
bu	-9.88188
페	-9.88205
▁중앙	-9.88206
ft	-9.88257
▁있으니	-9.88338
89	-9.88411
▁의원	-9.88451
메	-9.8847
du	-9.88488
▁행복한	-9.88494
▁조경	-9.88547
▁모의고사	-9.88564
htm	-9.88574
드론	-9.88588
호텔	-9.88591
▁일이	-9.88597
▁진출	-9.88618
▁아닙니다	-9.88681
▁병	-9.88692
다면	-9.88751
농업	-9.88753
▁자소서	-9.88777
▁수강신청	-9.88894
and	-9.88945
▁있으면	-9.88965
▁부탁드려요	-9.88969
:30	-9.88978
▁인스타	-9.89022
▁빠른	-9.89074
▁언론	-9.89104
이메일	-9.89121
국민	-9.89122
사례	-9.89144
▁facebook	-9.89154
▁1:1	-9.89161
▁주는	-9.89193
젠	-9.8926
▁민간	-9.89388
▁돌	-9.89435
goods	-9.89474
청소년	-9.89519
▁단계	-9.89586
▁운영하는	-9.89631
ia	-9.89655
os	-9.8966
ter	-9.897
."]	-9.89713
▁실시	-9.89778
▁혹은	-9.89795
세미나	-9.89844
해설	-9.89846
기본	-9.89853
스토리	-9.89899
ncs	-9.89903
▁설립	-9.89967
파일	-9.89986
특	-9.90012
▁우수	-9.90079
▁연주	-9.90119
허	-9.90129
▁진행하고	-9.90395
▁교육을	-9.90401
▁감염	-9.90436
선생님	-9.90436
▁지구	-9.90562
▁개정	-9.90573
▁요구	-9.90596
69	-9.90637
▁정확한	-9.90653
▁나라	-9.90691
▁담	-9.90736
54	-9.90742
dy	-9.90779
현대	-9.90807
설명	-9.90817
▁지정	-9.9093
▁늘	-9.90962
▁주택	-9.91037
▁해서	-9.9107
자를	-9.91078
▁구독자	-9.91127
won	-9.91164
업무	-9.91181
▁독서	-9.91237
▁보험	-9.91255
day	-9.91278
교수님	-9.91316
▁순	-9.91318
▁용	-9.91328
배우	-9.91341
ny	-9.9142
tu	-9.91509
▁저자	-9.91534
▁like	-9.91549
▁중요	-9.91582
000	-9.91613
▁마스크	-9.91659
▁문학	-9.91712
/4	-9.91791
링크	-9.92024
기출	-9.92028
84	-9.92053
▁will	-9.92103
박물관	-9.92129
▁효과	-9.92159
▁참가	-9.9216
▁궁금하신	-9.9218
▁j	-9.92245
▁레	-9.923
▁희망	-9.92321
▁회원	-9.92361
장치	-9.92376
▁전기기사	-9.92449
▁가는	-9.92473
story	-9.9248
사가	-9.92481
▁열린	-9.92487
보건	-9.92625
벌	-9.92711
▁입사	-9.92716
korean	-9.92746
▁과연	-9.9278
▁꿈	-9.92786
▁고등학교	-9.92808
교실	-9.92825
49	-9.92846
닷컴	-9.9286
▁팁	-9.92877
pm	-9.92921
▁이러한	-9.9294
▁모습을	-9.92978
해양	-9.9298
▁인생	-9.92998
겨	-9.93008
▁삶을	-9.93026
▁위험	-9.93107
카드	-9.93117
▁철도	-9.93137
엠	-9.93167
기능	-9.93252
보안	-9.93284
bgm	-9.93382
본부	-9.9339
▁29	-9.9339
------------	-9.93528
▁동시에	-9.93543
▁cc	-9.93551
보호	-9.93567
쌤의	-9.93576
▁비대면	-9.93673
▁아이템	-9.9371
:40	-9.93711
런	-9.9373
팔	-9.93734
수리	-9.93737
▁때문입니다	-9.93763
의학	-9.93854
▁순간	-9.93888
▁모습	-9.93911
▁목표	-9.93916
tc	-9.93986
샘	-9.94066
▁있을까	-9.94099
패	-9.94119
▁about	-9.94136
▁직장인	-9.94156
▁수정	-9.94207
yo	-9.94227
82	-9.94229
uk	-9.94255
체계	-9.94389
fc	-9.94403
자는	-9.94404
ff	-9.9442
stock	-9.94455
▁들	-9.94501
▁더보기	-9.94583
tistory	-9.94589
▁프랑스	-9.94595
▁알아	-9.94639
나는	-9.94689
행정	-9.94762
▁맞	-9.94765
홀	-9.94766
▁가기	-9.9479
500	-9.94798
▁스튜디오	-9.94855
ee	-9.94881
▁수질환경기사	-9.94899
▁재미있게	-9.94932
코드	-9.9496
기도	-9.94987
ls	-9.94991
▁010	-9.95044
▁마음	-9.95096
of	-9.95119
▁기념	-9.95129
lu	-9.95234
▁스스로	-9.95288
▁벌	-9.95303
▁감독	-9.95322
▁알아보기	-9.95356
▁영향을	-9.95376
here	-9.95527
sp	-9.95556
vi	-9.95574
▁분들을	-9.95588
▁중심	-9.95597
▁사전	-9.95671
▁사회복지	-9.95676
매주	-9.95701
습	-9.95706
▁우리의	-9.95808
기기	-9.95905
▁컨설턴트	-9.95939
%9	-9.95964
탑	-9.96071
▁교회	-9.96156
▁해커스	-9.96171
6.	-9.96207
앞으로	-9.96212
전국	-9.96227
주소	-9.96247
사의	-9.96297
▁마스터	-9.96301
▁콘텐츠를	-9.96324
cyber	-9.96333
▁예비	-9.96406
▁요소	-9.96476
gs	-9.96524
▁05	-9.9658
▁통신	-9.96615
▁실적	-9.9667
지원센터	-9.9671
▁도움	-9.96718
▁문자	-9.96748
ya	-9.96772
/6	-9.96778
▁자유	-9.96869
앱	-9.96925
ux	-9.97002
▁장관	-9.97012
▁생	-9.97028
개론	-9.97037
딩	-9.97093
▁왕	-9.97115
▁같아요	-9.97125
틀	-9.97188
참	-9.97229
업계	-9.9723
▁다운	-9.97252
공예	-9.97293
▁안에	-9.97303
▁특별한	-9.97317
▁번역	-9.97324
▁올려	-9.97325
실험	-9.97357
▁회화	-9.97361
▁바다	-9.97369
/5	-9.9744
71	-9.97456
ion	-9.97459
▁ch	-9.97474
▁체육	-9.9748
son	-9.97545
▁홈페이지에서	-9.97656
▁제시	-9.97661
▁ex	-9.97693
▁인간	-9.97733
▁복지	-9.97736
장애인	-9.97763
▁총정리	-9.97781
▁아파트	-9.97783
▁what	-9.97799
징	-9.97818
▁단어	-9.97827
▁미래를	-9.97865
bi	-9.97898
ap	-9.97969
▁오프라인	-9.97974
철학	-9.98034
▁04	-9.98062
801	-9.98065
비즈니스	-9.98083
▁도움을	-9.98083
▁봐주세요	-9.98151
47	-9.98226
cg	-9.98303
▁어떠한	-9.98315
통합	-9.98331
▁연속	-9.98379
되	-9.98421
▁복	-9.98485
도서관	-9.98519
▁기술사	-9.98531
▁채널을	-9.98541
전형	-9.98589
▁분들에게	-9.98602
▁교통	-9.98676
최근	-9.98676
▁have	-9.98695
with	-9.98748
▁운영하고	-9.98754
성장	-9.98775
주년	-9.98819
2)	-9.98837
▁비행	-9.98842
모두	-9.98854
▁라	-9.98865
회계	-9.98866
▁궁금하다면	-9.98884
구요	-9.98927
상품	-9.99021
▁놀이	-9.99042
▁우리는	-9.99054
▁매출	-9.99073
칭	-9.99171
▁카메라	-9.99219
박사	-9.99226
▁제안	-9.99237
▁w	-9.99261
video	-9.99279
▁부분이	-9.99336
post	-9.99354
:10	-9.99363
탕	-9.99371
▁향후	-9.9943
▁식	-9.99472
▁원하는	-9.99481
▁3.0	-9.99601
▁제작한	-9.9961
0%	-9.99637
▁전시회	-9.99659
▁나는	-9.99665
▁조명	-9.99707
▁없	-9.99713
만큼	-9.99776
▁subscribe	-9.99786
fm	-9.99911
시공	-9.99911
93	-9.99914
▁향상	-9.99942
그림	-9.99988
▁주목	-10.0001
▁선생님의	-10.0002
▁합격을	-10.0008
▁뭐	-10.0017
마을	-10.0023
▁가정	-10.0026
리는	-10.0028
솔	-10.0028
톡	-10.003
▁제공합니다	-10.0033
여성	-10.0034
▁포럼	-10.0038
▁피아노	-10.0039
스마트	-10.0049
▁농	-10.0049
ak	-10.0057
▁조건	-10.0059
▁요리	-10.006
지구	-10.0065
▁융합	-10.0073
mb	-10.0073
▁식물	-10.0074
ys	-10.008
▁보러가기	-10.0081
주제	-10.0083
▁소리	-10.0091
51	-10.0092
▁반복	-10.0094
▁접	-10.0094
▁가이드	-10.0095
중앙	-10.0098
가능	-10.0099
대한	-10.0101
▁분야의	-10.0105
데이터	-10.0106
▁따	-10.0106
라이브	-10.0108
▁계약	-10.0115
▁la	-10.0122
90	-10.0129
cp	-10.013
▁ncs	-10.0131
▁국회	-10.0132
한다는	-10.0137
!*	-10.014
스터디	-10.0141
▁중에	-10.0143
▁삼성전자	-10.0145
잉	-10.0145
▁장애	-10.0147
▁세상	-10.0148
donate	-10.015
fi	-10.0151
티비	-10.0158
▁과정에서	-10.0158
▁대신	-10.0159
▁부품	-10.0159
성과	-10.016
dr	-10.0161
cl	-10.0163
db	-10.0164
aa	-10.0165
스튜디오	-10.0165
회차	-10.0168
시면	-10.017
▁보았습니다	-10.0177
렌	-10.0177
ii	-10.0179
풀	-10.018
68	-10.018
▁서울대	-10.0182
엘	-10.0187
▁이에	-10.019
시민	-10.0192
드립니다	-10.0192
op	-10.0193
▁팀	-10.02
ml	-10.0203
za	-10.0209
▁관	-10.0209
▁university	-10.0213
gn	-10.0213
▁우려	-10.0214
▁jtbc	-10.0218
라면	-10.0221
였습니다	-10.0221
▁중인	-10.0221
je	-10.0222
▁신고	-10.0223
▁보건	-10.0232
움	-10.0238
▁인한	-10.0243
▁유럽	-10.0243
▁봄	-10.0244
▁기업의	-10.0245
나라	-10.0245
▁의견	-10.0245
언어	-10.025
▁회계	-10.0251
▁준비하는	-10.0251
▁one	-10.0254
▁대학생	-10.0256
88	-10.0257
▁그런데	-10.026
▁것도	-10.0266
▁심화	-10.0268
▁통계	-10.0268
▁울산	-10.0268
년차	-10.0275
▁공학	-10.0277
시켜	-10.0277
쉬	-10.0279
갑	-10.0282
▁활성화	-10.0287
37	-10.0292
▁산림	-10.0302
63	-10.0307
▁경험을	-10.031
▁31	-10.0312
▁성과	-10.0315
85	-10.0316
▁반영	-10.0317
▁몸	-10.0325
▁지방	-10.0336
kk	-10.0337
62	-10.034
공기업	-10.0348
▁스토리	-10.035
▁위기	-10.035
part	-10.0351
▁디	-10.0352
▁자료를	-10.0355
▁출신	-10.0357
!-	-10.0363
있	-10.0365
▁곡	-10.0367
▁등으로	-10.0368
▁뜻	-10.0368
tbs	-10.0387
▁자격	-10.0391
진단	-10.0393
▁뿐	-10.0393
오늘도	-10.0399
주가	-10.04
▁있었습니다	-10.04
edupd	-10.0405
ip	-10.0406
▁만들고	-10.0407
▁특	-10.0411
▁법률	-10.0416
▁저작권	-10.0417
▁화재	-10.0418
new	-10.0419
▁못한	-10.0422
▁육성	-10.043
▁방향	-10.0434
▁독	-10.0435
▁있기	-10.044
▁서로	-10.0444
▁제품을	-10.0452
76	-10.0454
춘	-10.0467
지를	-10.0476
가격	-10.0484
▁make	-10.0492
74	-10.0492
바로	-10.0494
▁활동을	-10.0499
af	-10.05
▁선물	-10.0506
dong	-10.0508
work	-10.051
▁영국	-10.0511
86	-10.0511
▁아침	-10.0512
▁한국의	-10.0513
▁문의는	-10.0515
▁평균	-10.0515
해당	-10.052
copyright	-10.0527
▁사람들	-10.053
kt	-10.0532
누	-10.0533
▁수사	-10.0537
▁공부법	-10.0538
ab	-10.054
되면	-10.0542
life	-10.0544
▁나무	-10.0545
연기	-10.0546
녀	-10.0547
▁커리큘럼	-10.055
gb	-10.055
▁di	-10.055
----------	-10.0556
아래	-10.0556
▁휴	-10.0561
계열	-10.0564
▁품질	-10.0571
강연	-10.0572
혈	-10.0573
▁무대	-10.0573
냐	-10.0574
play	-10.0579
hr	-10.058
▁트렌드	-10.0583
▁창작	-10.0585
▁요	-10.0587
화장품	-10.0589
design	-10.0591
▁생각합니다	-10.0592
▁꿈을	-10.0592
세대	-10.0596
▁노인	-10.0609
효과	-10.0615
▁베	-10.0617
▁재배포금지	-10.0618
설명회	-10.062
ni	-10.0623
91	-10.0623
age	-10.0634
pi	-10.0635
▁거래	-10.0635
▁역할	-10.0636
▁가공	-10.0637
공개	-10.064
▁주민	-10.064
시청	-10.0646
▁대학원	-10.0647
심리	-10.0647
▁서비스를	-10.0651
wa	-10.0651
nhn	-10.0653
▁대기업	-10.0657
80	-10.0658
ant	-10.0664
▁힘든	-10.0664
집니다	-10.067
랜드	-10.0671
노트	-10.0672
▁원리	-10.0675
▁질	-10.0682
심리학	-10.0685
%8	-10.0688
람	-10.0696
▁업데이트	-10.0698
▁음식	-10.0698
92	-10.07
▁비상	-10.07
▁소비	-10.0701
컴	-10.0701
auto	-10.0703
▁copyright	-10.0709
log	-10.0711
신문	-10.0713
10.	-10.0714
ui	-10.0718
물류	-10.0723
▁대체	-10.0724
태권도	-10.0726
▁주장	-10.0728
으며	-10.0729
▁주시면	-10.073
________________	-10.0732
샵	-10.0735
같은	-10.0736
▁위하여	-10.0738
▁수술	-10.0741
▁걱정	-10.0744
이슈	-10.0746
▁분은	-10.0749
▁am	-10.0754
▁u	-10.0757
▁연출	-10.0761
▁국내외	-10.0761
그럼	-10.0762
ity	-10.0762
잘	-10.0763
융합	-10.0771
공정	-10.0776
▁선수	-10.0776
▁예측	-10.0778
등록	-10.0779
▁행동	-10.0782
▁설	-10.0791
▁02-	-10.0792
▁모아	-10.0794
study	-10.0797
▁목적	-10.0797
▁금지	-10.08
▁발달	-10.081
▁지급	-10.081
▁공개합니다	-10.0813
▁빅데이터	-10.0815
해보세요	-10.0817
▁강남	-10.0821
▁영상에서	-10.0824
▁정신	-10.0827
edum	-10.0828
▁금요일	-10.0834
▁사이	-10.0834
일차	-10.0843
▁개발자	-10.085
rs	-10.0851
교육과	-10.0853
▁배경	-10.0858
교육청	-10.086
는데요	-10.086
▁업계	-10.0862
▁예약	-10.0864
▁아시아	-10.0865
▁교육과정	-10.0866
▁지적	-10.0871
▁팀장	-10.0871
▁입문	-10.0872
박람회	-10.0875
3)	-10.0878
▁나의	-10.088
▁배출	-10.0881
ze	-10.0882
연습	-10.0883
▁[2020	-10.0883
▁이용해	-10.0885
58	-10.0891
au	-10.0892
toon	-10.0892
▁찾는	-10.0897
사회복지사	-10.0904
ig	-10.0907
▁외국인	-10.091
▁된다	-10.0911
98	-10.0917
▁기회	-10.0923
▁정기	-10.0926
gr	-10.093
만의	-10.0931
교통	-10.0931
▁수요	-10.0933
products	-10.0934
▁아카데미	-10.0942
▁갖고	-10.0943
사람	-10.0946
률	-10.0946
▁프랑스어	-10.0949
선택	-10.0951
ph	-10.0958
▁연락	-10.0959
이에요	-10.0962
▁그대로	-10.0964
web	-10.0967
br	-10.0971
▁김영	-10.0975
▁비용	-10.0978
▁재밌게	-10.098
▁음	-10.0984
▁네트워크	-10.0984
▁종교	-10.0989
▁완벽	-10.0991
보세요	-10.0993
=1&	-10.0993
-------------	-10.0996
▁경북	-10.0996
케	-10.0996
이런	-10.0998
▁곧	-10.1001
작품	-10.1003
▁경쟁	-10.1004
▁포트폴리오	-10.1005
▁감상	-10.1015
되면서	-10.1015
전망	-10.1028
▁일시	-10.1029
▁위해서는	-10.1033
시에	-10.1042
▁답	-10.1048
▁무엇인가	-10.1055
콜	-10.1056
▁그동안	-10.1058
▁time	-10.1058
주식투자	-10.1067
▁06	-10.1075
그래서	-10.1081
?"	-10.1082
70	-10.1082
▁새롭게	-10.1088
바이	-10.1089
리뷰	-10.1093
em	-10.1095
기법	-10.1103
▁나온	-10.1105
info	-10.1105
pt	-10.1112
rd	-10.1113
▁중단	-10.1117
원장	-10.1119
▁동영상입니다	-10.112
▁화면	-10.1122
▁문장	-10.1125
장을	-10.1129
마스쿨	-10.113
넷	-10.1132
▁이상의	-10.1132
▁art	-10.1138
▁담당	-10.1138
억원	-10.1139
▁탈	-10.1141
▁정비	-10.1142
▁접근	-10.1142
▁유아	-10.1144
소득	-10.1145
bb	-10.1146
iv	-10.1148
인스타	-10.115
▁능력	-10.1151
시키는	-10.1155
▁윤리	-10.1155
▁분들께	-10.1156
▁한번에	-10.1158
▁명품	-10.116
▁검토	-10.1162
ld	-10.1164
하던	-10.1167
24.	-10.1181
▁오늘도	-10.1182
search	-10.1183
▁if	-10.1186
▁who	-10.1186
▁he	-10.1187
:05	-10.1188
▁법적	-10.1188
▁시각	-10.1194
▁되면	-10.1199
카톡	-10.12
▁스타트업	-10.1205
▁우선	-10.1205
▁어린이집	-10.1215
과학기술	-10.1215
별로	-10.1216
트리	-10.1226
척	-10.1231
▁여기	-10.1233
▁200	-10.1245
▁제한	-10.1252
~^^	-10.1254
▁외부	-10.1254
▁재미있는	-10.1254
▁learn	-10.1256
▁인력	-10.1258
월부터	-10.1259
▁얘기	-10.1265
▁인정	-10.1274
▁하는데	-10.1274
▁비법	-10.1277
▁색	-10.1278
회의	-10.1279
력을	-10.1281
link	-10.1284
pp	-10.1285
▁은행	-10.1288
▁경남	-10.1291
▁자막	-10.1292
plus	-10.1293
▁한글	-10.1297
닝	-10.1297
▁함	-10.1302
▁반응	-10.1303
:45	-10.1304
▁아름다운	-10.131
판매	-10.1314
▁마을	-10.1314
폭	-10.1317
▁샘플	-10.1318
▁주관	-10.1323
(2	-10.1331
▁담아	-10.1331
▁창출	-10.1332
▁연계	-10.1336
법인	-10.1337
▁최선을	-10.1342
▁결국	-10.1344
▁기독교	-10.1355
▁항공기	-10.1357
▁철학	-10.1359
▁음성	-10.1363
엄	-10.1377
ted	-10.1382
zz	-10.1388
▁자동	-10.1389
select	-10.1395
▁학생들이	-10.1399
om	-10.1402
벨	-10.1403
tion	-10.141
▁사용할	-10.141
▁대화	-10.1412
▁오늘의	-10.1413
▁무슨	-10.142
▁이사	-10.1423
▁목적으로	-10.1424
▁life	-10.1426
전기기사	-10.1428
케이	-10.1432
한다고	-10.1433
ah	-10.1442
▁죽	-10.1443
▁키	-10.1446
슈	-10.1446
ot	-10.1453
▁not	-10.1455
▁pd	-10.1457
토론	-10.1459
▁존재	-10.147
▁오픈카톡방	-10.147
61	-10.1471
▁산업혁명	-10.1472
kb	-10.1473
/@	-10.1481
▁공기업	-10.1481
▁교수의	-10.1486
tech	-10.1488
콘	-10.149
얼	-10.1502
셋	-10.1504
일시	-10.1504
▁기반으로	-10.151
노래	-10.1514
러닝	-10.1516
진로	-10.1518
방식	-10.1519
drive	-10.1523
삼성	-10.1532
▁맞춤형	-10.1533
▁고려	-10.1533
▁놓	-10.1539
55	-10.1542
▁규정	-10.1543
레이	-10.1543
▁거의	-10.1544
▁깨	-10.1546
궁	-10.1553
구독하기	-10.1558
모바일	-10.1562
제공	-10.1564
▁저의	-10.1565
공원	-10.1565
▁연봉	-10.1568
자격	-10.1569
▁충분히	-10.1573
▁ma	-10.1574
▁시청자	-10.1577
57	-10.158
ut	-10.1583
할까	-10.1585
ment	-10.1588
찰	-10.159
hs	-10.1591
▁인문학	-10.1593
hl	-10.1595
▁사업을	-10.1598
▁친	-10.1602
▁관심을	-10.1604
째	-10.1604
뉴	-10.1606
.2.	-10.1609
!"	-10.1612
▁커	-10.1613
밤	-10.1613
.1.	-10.1617
▁규제	-10.163
혀	-10.163
빛	-10.1631
윤리	-10.1634
▁시도	-10.1635
-----------	-10.1641
니까	-10.1656
연출	-10.1656
▁주의	-10.1661
▁수업을	-10.1665
▁고용	-10.1668
조명	-10.1668
자막	-10.1669
▁day	-10.1669
▁땅	-10.167
▁소속	-10.1671
▁접수	-10.1671
진행	-10.1674
▁포인트	-10.1675
▁방식	-10.1677
▁클래스	-10.1681
ive	-10.1685
▁되었으면	-10.1685
▁전용	-10.1688
nh	-10.1689
▁석	-10.1689
▁kb	-10.1691
store	-10.1691
▁파악	-10.1695
▁따라서	-10.1696
010	-10.1698
▁지속	-10.1699
득	-10.1701
▁드라마	-10.1704
버스	-10.1704
▁채널입니다	-10.1707
▁보유	-10.1715
▁스타	-10.1719
file	-10.1721
▁꾸준히	-10.1723
▁테스트	-10.1724
이었습니다	-10.1727
방향	-10.1727
▁투자자	-10.1727
▁최대한	-10.1728
▁세상을	-10.1733
▁과학기술	-10.1733
▁커피	-10.1735
gy	-10.1737
▁들어가	-10.1738
해커스	-10.1739
cat	-10.1741
▁조정	-10.1748
▁부족	-10.175
▁전쟁	-10.1751
드림	-10.1758
▁대회	-10.1759
▁생명	-10.1763
에스	-10.1764
인의	-10.1768
▁포스트	-10.1771
패스	-10.1773
▁빨리	-10.1777
▁감사드립니다	-10.1782
활	-10.1782
▁되지	-10.179
▁독일어	-10.179
▁내용입니다	-10.1791
제주	-10.1797
▁promoted	-10.1798
계약	-10.1805
기가	-10.1805
▁잠	-10.1808
▁실현	-10.1811
▁담은	-10.1811
▁신경	-10.1812
룸	-10.1817
:15	-10.1819
성공	-10.1819
2014	-10.1834
mu	-10.1836
▁속에	-10.1837
▁앞서	-10.1841
▁지금까지	-10.1844
▁되기	-10.1844
▁출간	-10.1846
▁가구	-10.1847
접	-10.1859
동물	-10.186
▁분류	-10.1862
▁암기	-10.1866
▁논란	-10.187
top	-10.1878
끝	-10.1883
▁here	-10.1883
클래스	-10.1885
fe	-10.1887
했지만	-10.1888
다가	-10.1892
twitch	-10.1893
ur	-10.1894
8%	-10.1896
수강	-10.1905
▁기능을	-10.1916
▁많습니다	-10.1918
▁초등	-10.192
vs	-10.1928
▁파일	-10.1932
nu	-10.1935
87	-10.1938
▁향	-10.1939
▁심리	-10.1942
들에	-10.1944
pass	-10.1954
▁인싸담당자	-10.1955
매매	-10.1956
한국원격평생교육원	-10.1957
▁아이디어	-10.1961
문장	-10.1962
▁link	-10.1962
▁정부가	-10.1964
경기도	-10.1964
▁현지	-10.1968
4%	-10.1971
-----	-10.1976
부분	-10.1978
▁숲	-10.1978
▁뮤지컬	-10.198
▁메이크업	-10.1983
▁풍	-10.1983
▁해도	-10.1988
캠	-10.1989
영상제작	-10.1991
여자	-10.1994
자연	-10.1996
▁컬러	-10.1999
▁두고	-10.2006
년에	-10.2006
▁감정	-10.2007
▁사항은	-10.2011
▁꿈꾸는	-10.2011
▁2022	-10.2013
하셔서	-10.2013
▁홈	-10.2021
이라면	-10.2022
▁넘는	-10.2023
:35	-10.2023
▁금속	-10.2025
![	-10.2029
▁돌아	-10.2029
▁재생목록	-10.2037
▁평화	-10.2039
▁무엇인지	-10.2046
▁확장	-10.2048
공유	-10.2052
▁진료	-10.2053
▁라이선스	-10.2059
▁2011	-10.206
▁토지	-10.2061
?-	-10.2064
▁너	-10.2071
46	-10.2073
js	-10.2079
댓글	-10.2081
주택관리사	-10.2083
▁삶의	-10.2086
▁통하여	-10.2086
▁버	-10.2089
dream	-10.2094
bm	-10.2098
▁현황	-10.2099
통신	-10.2106
▁판	-10.2107
함으로써	-10.2115
▁회복	-10.2115
한국경제	-10.2117
의사	-10.2121
oh	-10.2121
연합뉴스	-10.2121
팀장	-10.2126
▁has	-10.2129
▁현장에서	-10.213
리스	-10.2141
▁상태	-10.2142
▁취	-10.2144
라도	-10.2144
따	-10.2145
▁강좌를	-10.2151
검	-10.2156
cr	-10.2157
전시	-10.216
클럽	-10.2161
idx	-10.2161
sm	-10.2165
▁감소	-10.2168
▁극복	-10.2169
rc	-10.2173
▁이름	-10.2173
▁ot	-10.2174
▁멤버십	-10.2177
▁공모전	-10.2182
▁도로	-10.2182
▁대부분	-10.2183
▁con	-10.2185
▁실천	-10.2187
해도	-10.2189
으로부터	-10.219
슨	-10.219
hu	-10.2198
-5	-10.2198
▁폐	-10.2206
lt	-10.2208
프로젝트	-10.2209
되며	-10.2224
vod	-10.2226
.3.	-10.2226
▁세무사	-10.2239
▁가치를	-10.2242
ku	-10.2244
81	-10.2246
media	-10.2246
▁바이러스	-10.2252
구매	-10.2254
▁승무원	-10.2256
subscribe	-10.2261
▁위치한	-10.2263
star	-10.2264
▁대책	-10.2271
▁어제	-10.2272
▁수익	-10.2273
▁commons	-10.2273
▁구글	-10.2274
▁교육부	-10.2275
per	-10.2275
까요	-10.2277
분들	-10.2278
300	-10.2279
기는	-10.2279
측	-10.228
▁남북	-10.2281
▁(1)	-10.2282
▁없어	-10.2286
▁정도로	-10.2289
79	-10.2298
▁등장	-10.23
▁거쳐	-10.2302
73	-10.2306
he	-10.2306
저는	-10.2308
▁기법	-10.2308
서울시	-10.2308
ver	-10.2316
▁국방	-10.2318
land	-10.2319
▁70	-10.2321
▁음향	-10.2325
▁부동산학개론	-10.2326
yu	-10.2328
▁다시보기	-10.2328
수능	-10.2328
▁ro	-10.233
▁동영상은	-10.233
▁제작되었습니다	-10.2331
단과	-10.2331
▁탄생	-10.2334
▁임상	-10.2336
꿀팁	-10.2339
된다	-10.2345
▁카카오	-10.2352
▁증권	-10.2353
▁교류	-10.2354
낸	-10.2365
었다	-10.2366
▁구분	-10.2368
되기	-10.2369
여러분의	-10.237
▁자격증을	-10.237
▁생물	-10.2371
rt	-10.2371
▁하는지	-10.2372
토크	-10.2372
ky	-10.2373
▁얼굴	-10.2383
▁무료강의	-10.2386
▁거리	-10.2386
▁연극	-10.2387
▁발굴	-10.2388
▁un	-10.2389
▁유치원	-10.2393
▁지원을	-10.2393
ytnscience	-10.2399
gc	-10.2399
했는데	-10.24
참여	-10.2401
▁체크	-10.2402
ᄋ	-10.2406
ue	-10.2411
▁숨	-10.2415
studio	-10.2416
▁후보	-10.2417
▁과거	-10.2422
jin	-10.2426
사를	-10.2435
jp	-10.2437
▁물리	-10.2437
꾸	-10.2437
▁개요	-10.2438
▁능력을	-10.2439
▁사용법	-10.244
했다는	-10.2443
▁결	-10.2444
▁주말	-10.2445
▁분야에서	-10.2445
▁알림	-10.2445
▁망	-10.2446
용품	-10.245
개념	-10.245
한의원	-10.2451
졌습니다	-10.2454
실시간	-10.2457
cy	-10.2459
뿐만	-10.2463
경남	-10.2465
기구	-10.2472
▁노원	-10.2476
▁주변	-10.2476
ear	-10.2477
ance	-10.2481
▁시험을	-10.2484
▁재활	-10.2484
숲	-10.2485
▁배우기	-10.249
인터넷	-10.2491
fr	-10.2492
▁was	-10.2493
▁배울	-10.2499
▁확인해	-10.2499
▁보이는	-10.25
▁초보	-10.25
▁실내	-10.2513
bs	-10.2513
▁보도	-10.2515
▁직장	-10.252
교육원	-10.2523
전체	-10.2526
뷰	-10.2527
▁한국사	-10.2527
ud	-10.2531
▁그린	-10.2537
있습니다	-10.2538
▁학부모	-10.2546
▁마음을	-10.2548
hd	-10.255
▁좋아요는	-10.2555
▁있나요	-10.2557
▁야	-10.2558
밥	-10.2559
▁나와	-10.2561
잔	-10.2561
eu	-10.2563
▁한반도	-10.2566
▁넘	-10.2567
창작	-10.2567
▁반려동물	-10.2569
하였다	-10.257
▁주가	-10.2573
▁매수	-10.2573
기에	-10.2573
wi	-10.2576
▁좋아요와	-10.2576
웹	-10.2583
탁	-10.2584
▁좋을	-10.2588
zi	-10.259
▁입장	-10.2593
mt	-10.2594
▁얼마	-10.2601
▁예산	-10.2605
▁현직	-10.2607
▁자원	-10.2608
ek	-10.2609
amzn	-10.2611
▁best	-10.2614
▁attribution	-10.2618
제조	-10.262
▁누구	-10.2621
you	-10.2622
▁육	-10.2622
▁show	-10.2622
기록	-10.2622
▁철	-10.2623
▁싶으신	-10.2625
▁35	-10.2633
▁ad	-10.2633
▁합	-10.2636
사회복지	-10.2641
▁논문	-10.2642
▁적극	-10.2644
축제	-10.2647
에선	-10.2649
▁혜택	-10.2651
상황	-10.2654
fu	-10.2658
위원	-10.2662
▁밴드	-10.2666
▁평생교육	-10.2667
가스	-10.267
유형	-10.2673
행동	-10.2677
▁개설	-10.2679
ᅳ	-10.2681
▁생각하는	-10.2685
▁퍼	-10.2686
▁물질	-10.2688
여러분	-10.2689
▁동영상을	-10.269
▁건강한	-10.2693
련	-10.2694
▁제출	-10.2697
▁영역	-10.2697
▁유익한	-10.2698
활용	-10.27
휴	-10.2704
▁먹	-10.2712
hk	-10.2713
분기	-10.2713
▁인기	-10.2717
▁무엇을	-10.2721
▁침	-10.2727
▁구현	-10.2728
▁please	-10.273
53	-10.2731
▁그룹	-10.2731
59	-10.2735
페이지	-10.2737
▁누	-10.274
생명	-10.274
기능장	-10.2742
브랜드	-10.2743
▁즉	-10.2744
▁english	-10.2747
하려면	-10.2751
.^^	-10.2756
75	-10.2756
bl	-10.2759
▁점이	-10.276
▁있으시면	-10.2764
ei	-10.2764
▁맛	-10.2765
▁계	-10.2769
▁보니	-10.2774
▁용어	-10.2779
▁여자	-10.2785
▁mbn	-10.2787
▁절차	-10.2787
▁삶	-10.279
객	-10.2793
101	-10.2793
▁키워드	-10.2801
▁마세요	-10.2803
▁그냥	-10.2805
맥	-10.2808
▁사이버	-10.2813
독학	-10.2816
강남	-10.2817
▁빈	-10.2821
▁계산	-10.2823
▁절	-10.2824
학번	-10.2828
▁이사장	-10.283
이지	-10.2835
▁배우고	-10.2836
▁즐거운	-10.2837
▁달리	-10.2841
입문	-10.2841
oo	-10.2843
핑	-10.2844
rm	-10.2861
▁출시	-10.2864
▁경쟁력	-10.2867
_1	-10.2871
함수	-10.2876
▁시험에	-10.2876
거래	-10.2878
▁태권도	-10.2886
▁코리아	-10.289
▁페	-10.2892
하시기	-10.2892
▁패턴	-10.2893
▁힐링	-10.2893
123	-10.2894
▁사장	-10.2896
▁한다는	-10.2904
해주신	-10.2905
▁유명	-10.2914
▁(1	-10.2917
▁chapter	-10.2917
더배움	-10.292
▁강의로	-10.2921
잠	-10.2922
▁이해하기	-10.2924
▁한다고	-10.2925
▁진행합니다	-10.2925
컷	-10.2928
▁설비	-10.2928
▁헤	-10.2929
▁노동	-10.2933
▁치과	-10.2935
0:00	-10.2938
▁사는	-10.294
▁굉장히	-10.2943
▁필기시험	-10.2944
한자	-10.2946
지방	-10.295
▁경우가	-10.2951
▁배포	-10.2954
저희	-10.2957
한국어	-10.2964
▁위반	-10.2966
▁창	-10.2966
▁교육의	-10.2966
▁듣는	-10.2969
▁출판	-10.2974
하우스	-10.2976
년까지	-10.298
뷰티	-10.2984
특허	-10.2985
ae	-10.2987
~!!	-10.2989
▁가스	-10.299
▁하반기	-10.2994
78	-10.2995
12.	-10.2996
▁ᄒᄒ	-10.2999
▁낙	-10.3004
결과	-10.3005
▁주로	-10.3008
▁use	-10.3009
▁시작합니다	-10.3011
호선	-10.3012
기사문의	-10.3016
academy	-10.3017
▁엔진	-10.3019
▁쇼핑몰	-10.3019
rf	-10.3019
fb	-10.3019
▁차이	-10.302
뮤지컬	-10.3028
-19	-10.3033
▁화이팅	-10.3034
der	-10.3036
임용	-10.3037
▁내려	-10.3037
chat	-10.3037
▁전력	-10.3039
cate	-10.304
통계	-10.304
kh	-10.3041
▁인물	-10.3045
사는	-10.305
ug	-10.3057
울산	-10.3059
▁full	-10.3061
▁규모	-10.3063
삼성전자	-10.3064
큐	-10.3067
▁캐릭터	-10.3071
▁정보는	-10.3072
▁김성	-10.3073
cf	-10.3073
sd	-10.3077
▁work	-10.3078
▁합격자	-10.3078
▁완료	-10.3079
ine	-10.3079
hy	-10.308
▁visit	-10.3081
▁있었던	-10.3085
▁감사하겠습니다	-10.309
납	-10.3091
▁play	-10.3094
fl	-10.31
▁비판	-10.31
먹	-10.3102
▁유치	-10.3109
꿈	-10.311
▁콘텐츠는	-10.3113
▁표	-10.3117
▁카드	-10.3118
▁리얼	-10.3121
▁300	-10.3133
▁인재	-10.3139
▁시대의	-10.3145
▁영양	-10.3149
▁패키지	-10.3158
pop	-10.316
▁조리	-10.3161
/7	-10.3171
번역	-10.3171
▁질병	-10.3174
조직	-10.3175
▁ceo	-10.3176
▁환	-10.3176
▁이해하고	-10.3176
조경	-10.3179
▁않을	-10.3183
▁부문	-10.3184
gk	-10.3185
▁80	-10.3186
▁아트	-10.3192
▁정시	-10.3192
하루	-10.3194
▁jebo	-10.3195
mix	-10.3199
하겠다고	-10.3201
그런데	-10.3202
▁긴급	-10.3203
▁스터디	-10.3203
▁kim	-10.3203
800	-10.3214
쓰	-10.3219
▁옷	-10.3222
▁information	-10.3222
급공무원	-10.3223
데이	-10.3224
협의회	-10.3225
일까	-10.3226
됐다	-10.3227
event	-10.3233
▁단순	-10.3234
▁루	-10.3236
▁코드	-10.3243
▁매매	-10.3246
▁대기환경기사	-10.3247
힌	-10.3248
부문	-10.3248
▁library	-10.3253
▁서울대학교	-10.3255
묘	-10.3258
▁완전	-10.3259
▁표준	-10.3259
센	-10.326
테스트	-10.3264
▁의한	-10.327
ik	-10.3271
▁드리겠습니다	-10.3272
제약	-10.3273
nc	-10.3274
누리	-10.3274
▁올바른	-10.3278
▁방법에	-10.3282
소재	-10.3283
▁출발	-10.3291
▁전하는	-10.3294
▁성인	-10.3297
주간	-10.3299
▁써	-10.33
▁sw	-10.3301
▁문화예술	-10.3302
dd	-10.3304
중심	-10.3304
서울대	-10.3305
▁언제	-10.3305
▁의료기기	-10.3307
▁됐습니다	-10.3307
시기	-10.3308
▁임용	-10.331
▁나노	-10.3314
▁찾기	-10.3316
리고	-10.3316
tt	-10.3317
▁en	-10.3319
▁조치	-10.3321
▁o	-10.3321
▁항	-10.3321
▁확인할	-10.3323
ye	-10.3327
single	-10.3328
연주	-10.3328
▁수험생	-10.3333
▁베트남	-10.3333
▁행	-10.3333
▁sa	-10.3338
▁na	-10.3339
▁가수	-10.334
▁그리기	-10.3342
몬	-10.3346
치는	-10.3348
▁배워	-10.3349
짐	-10.335
뿐	-10.3353
피아노	-10.3355
xb	-10.3355
sns	-10.3356
ting	-10.3356
hkwowtv	-10.3356
▁나눠	-10.3357
▁즐겁게	-10.3358
진흥원	-10.3362
▁증	-10.3366
▁ᆞ	-10.3366
▁내신	-10.3369
83	-10.3375
원리	-10.3377
wo	-10.3379
▁정부의	-10.3393
질환	-10.3412
▁궁금해	-10.3413
자소서	-10.3426
biz	-10.343
▁최초로	-10.3431
yj	-10.3434
성이	-10.3434
해드립니다	-10.3438
장이	-10.3441
pu	-10.3442
대학생	-10.3447
클	-10.3451
▁형성	-10.3451
▁실제로	-10.3454
▁기업이	-10.3455
woo	-10.3456
▁클라우드	-10.3456
▁올배움	-10.3459
hanmail	-10.3462
▁사람들의	-10.3462
▁맞아	-10.3464
▁범죄	-10.3471
▁진화	-10.3473
치과	-10.3474
셀	-10.3474
아시아	-10.3474
값	-10.3476
ary	-10.3476
follow	-10.3477
▁작곡	-10.3478
▁인트로	-10.3478
▁교과서	-10.3479
5%	-10.3483
널	-10.3486
이면	-10.3489
▁버전	-10.349
0115	-10.3492
cu	-10.3496
답니다	-10.3507
▁프리미엄	-10.3507
머리	-10.3508
주기	-10.3508
▁목사	-10.3513
▁그러나	-10.3514
▁체	-10.3516
▁지원사업	-10.3517
▁스타일	-10.3524
▁에듀윌	-10.3527
xl	-10.3529
▁유리	-10.3534
▁여름	-10.3535
▁주문	-10.3538
▁섬유	-10.3539
물질	-10.3539
▁필	-10.354
▁제일	-10.3541
▁매년	-10.3548
리스트	-10.3549
쉽게	-10.355
▁하나의	-10.3552
▁말고	-10.3554
▁점을	-10.3555
컬	-10.3555
▁목표로	-10.3557
발달	-10.3557
노인	-10.3561
확인	-10.3562
▁준비했습니다	-10.3565
라이프	-10.3567
철도	-10.3568
▁초청	-10.3573
고객	-10.3576
십	-10.3576
64	-10.3578
▁내년	-10.3581
눈	-10.3582
애니메이션	-10.3591
올해	-10.3592
---	-10.3596
▁업무를	-10.3597
▁실력	-10.3601
▁되셨다면	-10.3601
bj	-10.3607
sr	-10.3611
this	-10.3612
▁맞춰	-10.3612
▁공감	-10.3612
▁제거	-10.3623
▁있	-10.3625
(?)	-10.3631
지사	-10.3633
▁안전한	-10.3633
fo	-10.3633
▁공부를	-10.3641
kw	-10.3641
▁나서	-10.365
▁알아보겠습니다	-10.3652
▁fa	-10.3653
▁분야에	-10.3655
몽	-10.3656
mw	-10.3658
아파트	-10.3665
▁의학	-10.3668
▁오래	-10.3668
▁모양	-10.3668
요리	-10.3671
▁바람	-10.3673
로운	-10.3673
문제풀이	-10.3674
아라	-10.3675
▁잔	-10.3676
▁좋습니다	-10.3677
▁스케치	-10.3688
lc	-10.3689
out	-10.369
56	-10.3692
투어	-10.3694
▁표시	-10.3697
촉	-10.3697
▁슈퍼	-10.3698
▁김현	-10.3701
200	-10.3702
▁이기적	-10.3703
▁500	-10.3712
▁특성	-10.3713
mg	-10.3714
▁뉴	-10.3716
bn	-10.3717
위원장	-10.3719
▁확인하실	-10.3732
▁전임교수	-10.3734
▁멋진	-10.3735
응	-10.3736
조건	-10.3743
받는	-10.3748
▁의해	-10.3748
▁처음으로	-10.375
▁부여	-10.375
▁배터리	-10.3751
▁충북	-10.3753
벽	-10.3759
▁인도	-10.3763
▁원자력	-10.3763
봄	-10.3766
경력	-10.3768
정비	-10.3768
=0082&	-10.3769
`	-10.377
▁투입	-10.3778
▁상상	-10.3781
▁그렇게	-10.3781
▁복원	-10.3783
▁보여	-10.3783
center	-10.3785
▁맞춤	-10.3797
ᄒᄒ	-10.38
▁핵	-10.3804
▁간단한	-10.3805
love	-10.3807
땅	-10.3807
▁혜택을	-10.3808
md	-10.381
▁자리	-10.3811
마스터	-10.3811
67	-10.3817
▁승	-10.3818
▁pa	-10.3819
▁download	-10.382
▁생존	-10.382
▁강조	-10.3821
었던	-10.3824
는지	-10.3825
▁힘을	-10.3826
young	-10.3831
▁많아	-10.3839
vr	-10.3841
뇌	-10.3842
무용	-10.3843
~~~	-10.3843
▁계신	-10.3849
▁강의가	-10.3851
▁책을	-10.3851
피부	-10.3852
▁지식을	-10.3853
룡	-10.3855
▁2009	-10.3855
▁한국인	-10.3856
▁모르는	-10.3857
py	-10.3858
▁좋아하는	-10.386
홈	-10.386
▁관련주	-10.3861
▁진행됩니다	-10.3861
▁방식으로	-10.3862
▁전남	-10.3863
▁통과	-10.3865
▁단기	-10.387
▁공항	-10.3875
▁김종	-10.3875
매일	-10.3876
xx	-10.3877
▁이용하여	-10.3877
▁전기차	-10.3877
기반	-10.3879
]"	-10.3881
▁준비한	-10.3882
kn	-10.3882
이기	-10.389
▁달성	-10.3892
▁도자기	-10.3898
▁완	-10.3901
변호사	-10.3902
의원	-10.3903
후기	-10.3905
로그	-10.3906
▁받기	-10.3906
관리사	-10.3908
▁눌러	-10.3909
년대	-10.3916
▁극	-10.3918
=20	-10.3919
▁멘토링	-10.3921
대행	-10.3924
헤어	-10.3924
▁드	-10.3932
▁하면서	-10.3932
체대입시	-10.3937
섬유	-10.3937
수술	-10.3938
직무	-10.3942
▁발음	-10.3946
▁보장	-10.3949
보다는	-10.3949
▁매장	-10.395
드라마	-10.3951
선수	-10.3954
▁성경	-10.3957
▁유전자	-10.3959
▁것이라고	-10.3964
도서	-10.3969
▁사항	-10.3969
▁내일	-10.3972
▁특정	-10.3973
books	-10.3981
▁기자의	-10.3983
직원	-10.3984
할때	-10.3984
▁사용자	-10.3984
▁가을	-10.3985
▁audio	-10.3987
직장인	-10.3988
지도자	-10.3994
메이크업	-10.3995
빙	-10.3997
:18	-10.3998
화를	-10.4001
1:1	-10.4007
▁정보가	-10.4009
teacher	-10.4011
▁세종	-10.4012
문화재단	-10.4022
▁주도	-10.4022
오늘의	-10.4023
변화	-10.4025
▁제어	-10.4026
▁영향	-10.403
▁결과를	-10.4031
lms	-10.4033
릿	-10.4034
카카오	-10.4038
▁코딩	-10.4039
▁크기	-10.4039
▁전송	-10.404
법을	-10.4041
▁새로	-10.4044
▁현장을	-10.4052
▁수요일	-10.4052
0103	-10.4053
▁bo	-10.4054
튜브	-10.4059
▁연구위원	-10.4062
식물	-10.4062
기로	-10.4068
▁못하는	-10.4073
▁집단	-10.4078
sy	-10.4081
▁아는	-10.4085
▁08	-10.4086
이용	-10.4088
▁실패	-10.4089
gle	-10.4089
▁지나	-10.4089
▁하이	-10.409
내는	-10.4091
▁시나리오	-10.4096
▁제공하고	-10.4096
▁사상	-10.41
▁제목	-10.4102
논술	-10.4105
▁알아보는	-10.4106
cad	-10.4114
able	-10.4114
▁집에서	-10.4115
혹	-10.4119
▁받았습니다	-10.4119
▁진행되는	-10.412
▁보시면	-10.4121
3%	-10.4122
▁엄	-10.4125
▁bgm	-10.4126
폰	-10.4126
kf	-10.4127
▁것인가	-10.4129
소설	-10.413
dance	-10.4131
▁김민	-10.4134
으로서	-10.4136
▁통일	-10.4136
▁뿐만	-10.4139
▁읽어	-10.4145
부장	-10.4147
▁생각을	-10.4147
▁방법은	-10.4151
▁le	-10.4151
이제	-10.4154
od	-10.4157
▁진실	-10.4158
▁포장	-10.4159
▁댓글은	-10.4159
적이고	-10.4161
▁등등	-10.4161
▁관심과	-10.4161
셔	-10.4164
sg	-10.4164
▁검증	-10.4165
▁어려움을	-10.4165
위생	-10.4174
환자	-10.4174
▁낮	-10.4175
▁피드백	-10.4183
▁마음으로	-10.4185
▁언제나	-10.4191
천만	-10.4194
▁유도	-10.4196
▁작	-10.4196
▁but	-10.4196
▁이해를	-10.4198
려면	-10.4199
ht	-10.4203
월드	-10.4203
네트워크	-10.4203
머니	-10.4205
동안	-10.4207
mr	-10.4208
▁충남	-10.421
샤	-10.4213
▁컨퍼런스	-10.4217
다른	-10.4217
aw	-10.4219
밴드	-10.4221
▁09	-10.4222
▁겨울	-10.4222
▁개발한	-10.4224
마이	-10.4225
▁콘서트	-10.4229
▁길을	-10.4237
▁않	-10.4238
dg	-10.4238
▁평생	-10.4239
▁알아봅니다	-10.4242
▁하며	-10.4246
▁청와대	-10.4248
▁부터	-10.4248
▁접종	-10.4253
첫	-10.4253
forms	-10.4257
예방	-10.4259
▁특허	-10.4263
▁상황에서	-10.4264
국립	-10.4264
▁동작	-10.4265
▁살아	-10.4266
▁하늘	-10.4269
▁토크	-10.4274
▁전부	-10.4275
보고서	-10.4277
▁세부	-10.4279
▁대기	-10.4279
▁수강료	-10.428
표현	-10.428
▁팬	-10.4281
▁중요합니다	-10.4282
수정	-10.4288
-3	-10.4289
웨이	-10.429
▁문화재	-10.4292
▁의뢰	-10.4293
닥	-10.4293
▁system	-10.4293
tp	-10.4294
▁동의	-10.4294
▁정보통신	-10.4296
▁만남	-10.43
▁폭	-10.43
밍	-10.4301
▁앞두고	-10.4307
▁되시길	-10.4308
▁밀	-10.4309
tra	-10.4311
_2020	-10.432
▁가져	-10.4323
ill	-10.4324
▁전혀	-10.4326
푸	-10.4328
▁월요일	-10.4332
▁첫번째	-10.4333
▁정밀	-10.4335
▁모델링	-10.4336
초등	-10.4339
▁반대	-10.4339
▁재배	-10.434
▁입력	-10.4343
▁영상에서는	-10.4344
가이드	-10.4345
▁가능성이	-10.4346
▁범위	-10.4351
롱	-10.4354
펜	-10.4355
차량	-10.4362
했는데요	-10.437
▁수강생	-10.437
365	-10.4374
▁stream	-10.4377
▁공격	-10.4379
hc	-10.438
했을	-10.4387
▁맥	-10.439
▁테마	-10.439
rn	-10.4392
▁서양	-10.4392
당신의	-10.4392
▁밖에	-10.4395
creativecommo	-10.4397
순위	-10.4398
qui	-10.4399
▁농가	-10.4404
▁할까	-10.4406
▁진행하는	-10.4412
ow	-10.4415
와우넷	-10.4416
utm	-10.4416
▁의견을	-10.4416
려고	-10.4418
▁평	-10.4426
▁오리엔테이션	-10.4428
▁필요합니다	-10.4429
전쟁	-10.4436
cha	-10.4436
▁읽기	-10.4439
▁인턴	-10.4442
kstudy	-10.4446
1%	-10.445
▁태풍	-10.4452
▁삭제	-10.4454
licenses	-10.4458
.4.	-10.446
jsp	-10.4461
▁한자	-10.4463
▁성분	-10.4464
▁엄마	-10.4471
▁취재	-10.4471
▁07	-10.4473
▁출	-10.4474
빌딩	-10.4474
nx	-10.4475
jk	-10.4475
와의	-10.4479
▁와인	-10.448
힘	-10.4485
지기	-10.4488
마스크	-10.449
답	-10.4492
장은	-10.4493
▁pm	-10.4495
인사	-10.4498
▁지켜	-10.4499
tic	-10.45
▁질환	-10.4502
▁신입생	-10.4505
▁무용	-10.4507
fp	-10.4507
어떤	-10.4508
ag	-10.4508
▁용접	-10.4512
▁any	-10.4519
▁연구개발	-10.4523
듯	-10.4523
▁열정	-10.4526
▁#1	-10.4526
data	-10.4526
개국	-10.4527
▁한문	-10.4531
▁공부하는	-10.4531
있다	-10.4531
▁사무실	-10.4534
▁부족한	-10.4535
▁공부하고	-10.4536
어린이	-10.4538
▁있던	-10.4539
▁미세먼지	-10.454
time	-10.4541
jw	-10.4543
▁진학	-10.4544
ou	-10.4544
▁부탁	-10.4545
▁헤어	-10.4547
▁떠	-10.4548
▁해요	-10.4549
gh	-10.4549
▁김동	-10.455
▁작업을	-10.4551
▁않아	-10.4551
구역	-10.4555
스키	-10.4556
절차	-10.4556
마음	-10.4558
▁양해	-10.4561
▁돈을	-10.4561
▁울	-10.4562
▁get	-10.4563
▁기술이	-10.4564
▁하였습니다	-10.4567
자리	-10.4567
님이	-10.4568
정치	-10.4568
▁간호사	-10.457
▁봅니다	-10.4575
▁산업안전기사	-10.4581
방안	-10.4583
이동	-10.4584
▁교육청	-10.4585
▁토요일	-10.4586
▁관찰	-10.4587
▁의무	-10.4587
독서	-10.459
부품	-10.4591
▁세바시	-10.4592
▁전주	-10.4594
▁쓸	-10.4594
nam	-10.4596
버전	-10.4596
▁골	-10.4598
랜	-10.4598
▁태양광	-10.4599
▁상반기	-10.46
코스	-10.4604
▁ver	-10.4609
팁	-10.4617
콘서트	-10.4619
▁장점	-10.462
언니	-10.4622
용어	-10.4623
▁혼자	-10.4623
▁부모	-10.4627
일보	-10.4634
san	-10.4637
신고	-10.4637
▁배치	-10.4638
▁지자체	-10.4639
경호	-10.4641
정신	-10.4644
케어	-10.4646
했어요	-10.4649
개선	-10.465
음향	-10.4651
school	-10.4652
▁2010	-10.4652
cj	-10.4654
mon	-10.4654
king	-10.4655
▁조절	-10.4664
시리즈	-10.4664
mtn	-10.4666
▁해소	-10.4667
tn	-10.4672
산업의	-10.4673
type	-10.4673
스타일	-10.4673
고요	-10.4674
▁학생들에게	-10.4674
▁유튜버	-10.4674
응용	-10.4676
▁공예	-10.4681
▁확진	-10.4682
최신	-10.4684
lp	-10.4685
air	-10.4685
관련주	-10.469
무대	-10.4695
주최	-10.4696
▁과목별	-10.4697
zo	-10.4699
역학	-10.4701
▁터	-10.4701
금속	-10.4706
럴	-10.4709
▁드디어	-10.4713
▁명이	-10.4714
▁기상	-10.4714
▁메	-10.4715
sung	-10.4719
▁정부는	-10.4727
▁붙	-10.4728
▁자녀	-10.4728
▁자기소개서	-10.4731
▁순서	-10.4731
rp	-10.4733
▁겸	-10.4734
점을	-10.4739
car	-10.4741
dj	-10.4744
gm	-10.4745
▁역량	-10.4748
▁따로	-10.475
zy	-10.4752
▁취소	-10.4753
▁악	-10.4755
▁군사	-10.4757
bg	-10.4758
대책	-10.4759
▁더불어	-10.4763
용접	-10.4768
▁신호	-10.4774
북한	-10.4777
영상입니다	-10.4785
▁마음에	-10.4787
▁세포	-10.479
▁over	-10.4791
▁주식투자	-10.4794
기타	-10.4796
▁협업	-10.4797
▁술	-10.4799
bf	-10.48
▁체결	-10.48
jy	-10.4803
▁원을	-10.481
:44	-10.4811
▁나왔습니다	-10.4815
:02	-10.4818
▁시작한	-10.4824
▁항공사	-10.4828
▁김진	-10.4829
콤	-10.4836
▁학	-10.4838
오는	-10.4842
일정	-10.4843
▁플레이	-10.4845
▁인지	-10.4847
▁토론회	-10.4854
▁playlist	-10.4855
▁love	-10.4856
하시길	-10.4858
▁studio	-10.4859
world	-10.4863
▁행정학	-10.4864
cn	-10.4867
▁난이도	-10.4873
특수	-10.4881
▁주최	-10.4881
▁측	-10.4883
▁재난	-10.4883
▁하시는	-10.4885
▁수도권	-10.4889
세종	-10.4889
^	-10.4889
96.	-10.4891
치기	-10.4893
▁왔습니다	-10.4894
▁외국	-10.4894
▁할까요	-10.4895
▁초기	-10.4896
master	-10.4896
▁인원	-10.4897
▁정답	-10.4897
▁도면	-10.4898
바다	-10.4901
포인트	-10.4901
6%	-10.4906
ology	-10.4907
▁그려	-10.4909
▁비디오	-10.4912
▁석사	-10.4914
▁사망	-10.4915
▁담긴	-10.4917
▁온도	-10.4918
ub	-10.4919
read	-10.4923
생물	-10.4924
▁시황	-10.4925
▁ha	-10.4926
nk	-10.4928
reurl	-10.4932
하기도	-10.4937
▁건축기사	-10.4938
▁[2021	-10.4944
행위	-10.4945
ian	-10.4948
▁이수	-10.4949
▁official	-10.4951
▁노하우를	-10.4951
▁장기	-10.4957
▁체계	-10.4959
ᅲᅲ	-10.496
incompetech	-10.4962
▁업종	-10.4967
코딩	-10.4968
참고	-10.4969
▁높	-10.4969
소비자	-10.497
▁비롯해	-10.4972
▁영상편집	-10.4974
▁출연자	-10.4974
단원	-10.4977
나합격	-10.4978
이니	-10.4984
물리	-10.4986
▁국민의	-10.4987
▁따르면	-10.4987
▁방지	-10.4991
▁갖춘	-10.4992
▁남겨주시면	-10.4993
▁진행된	-10.4994
.04.	-10.4996
조리	-10.4998
▁만나는	-10.5003
▁되길	-10.5004
kd	-10.5004
xi	-10.5008
▁학점은행제	-10.5011
▁se	-10.5012
시킬	-10.5013
▁사실을	-10.5013
▁나가	-10.5015
▁학생들의	-10.5016
▁ra	-10.5017
▁있지	-10.5022
▁현상	-10.5024
▁하세요	-10.5026
가구	-10.5026
▁수많은	-10.5034
도로	-10.5035
드리	-10.504
공공	-10.504
팬	-10.5047
▁러시아어	-10.5048
▁여전히	-10.505
▁메시지	-10.5052
번호	-10.5052
:37	-10.5055
▁축구	-10.5055
▁배웁니다	-10.5056
▁처	-10.5059
▁동영상강의	-10.5059
보장	-10.5059
▁see	-10.5064
팜	-10.5065
▁#3	-10.5067
연수	-10.5072
▁곳이	-10.5074
▁su	-10.5075
ence	-10.5076
▁관련한	-10.5076
▁만족	-10.5077
스터	-10.5078
▁혼	-10.508
▁인상	-10.5082
▁ap	-10.5088
65	-10.5092
▁school	-10.5093
lk	-10.5093
▁롯데	-10.5096
▁남성	-10.5097
wh	-10.5098
언론	-10.5101
▁공기	-10.5103
01.	-10.5104
▁모여	-10.5104
▁연수	-10.5106
▁에어	-10.5109
지에	-10.5113
▁불교	-10.5122
▁서류	-10.5123
▁재미	-10.5124
gw	-10.5125
▁짧은	-10.5126
디자인과	-10.5129
:58	-10.513
▁해상	-10.5135
▁소개하는	-10.5136
서울대학교	-10.5137
하이	-10.5138
▁충	-10.5139
▁z	-10.5139
죽	-10.5141
▁문을	-10.5142
특별	-10.5146
▁녹음	-10.515
▁다수	-10.5153
▁인구	-10.5154
▁점은	-10.516
~1	-10.5161
▁부담	-10.5163
▁받	-10.5163
▁시기	-10.5167
행복	-10.5168
▁대학교	-10.5172
▁kstudy	-10.5174
칼	-10.5174
▁인류	-10.5178
해주는	-10.5178
az	-10.518
▁군무원	-10.518
▁정상	-10.5181
:26	-10.5182
짜	-10.5182
▁미용	-10.5191
▁크리에이터	-10.5191
▁염	-10.5192
▁문화예술교육	-10.5198
전에	-10.5202
▁착용	-10.5203
중학교	-10.5204
▁옥	-10.5205
젤	-10.5206
완성	-10.5207
▁교수님이	-10.5209
park	-10.521
시길	-10.5211
▁목요일	-10.5212
2012	-10.5213
jh	-10.5215
▁소득	-10.5217
▁분리	-10.5219
구성	-10.522
프리	-10.5222
ev	-10.5225
자와	-10.5227
▁회의	-10.5227
혼	-10.5229
▁어디	-10.523
렉	-10.5232
ong	-10.5232
jj	-10.5234
함을	-10.5234
▁세션	-10.5237
:53	-10.5239
맘	-10.5244
▁바이	-10.5245
폼	-10.525
평론가	-10.525
(3	-10.5252
▁효과를	-10.5254
:00	-10.5257
tw	-10.526
학자	-10.5263
▁ict	-10.5264
▁의혹	-10.5265
지원사업	-10.5267
▁복습	-10.527
▁빛	-10.5271
▁경제학	-10.5275
설치	-10.5276
yn	-10.5278
수시	-10.5281
세무사	-10.5281
▁길이	-10.5284
▁치유	-10.5285
일간	-10.5288
line	-10.5291
정도	-10.5292
▁소방설비기사	-10.5293
▁(2)	-10.5294
었	-10.5296
▁말했습니다	-10.5297
봐	-10.5301
한다면	-10.5303
▁분위기	-10.5304
▁센터	-10.5307
▁준	-10.5308
▁씨는	-10.5312
에듀피디	-10.5312
sang	-10.5313
▁아나운서	-10.5313
▁정원	-10.5316
▁강원도	-10.5316
삭	-10.5317
-6	-10.532
정보통신	-10.532
▁비행기	-10.5326
▁품질경영기사	-10.5326
초보	-10.5326
지수	-10.5327
턴	-10.5332
했으며	-10.5335
▁증시	-10.5335
▁인문	-10.5338
▁소식을	-10.5341
물을	-10.5343
아티스트	-10.5343
66	-10.5346
극장	-10.5348
▁잘못	-10.5349
▁흐름	-10.5349
▁최다	-10.5353
▁기본적인	-10.5357
▁그래픽	-10.5357
jq	-10.536
시티	-10.5362
▁설명을	-10.5368
▁출근	-10.537
▁면	-10.537
▁해주세요	-10.5372
qu	-10.5374
이어	-10.5374
▁mo	-10.5379
▁떠나	-10.5382
bd	-10.5382
like	-10.5383
보자	-10.5383
▁원전	-10.5388
▁젊은	-10.5392
▁가능성	-10.5392
▁대처	-10.5394
▁주택관리사	-10.5398
ox	-10.5399
쿨	-10.5402
▁편하게	-10.5404
영상이	-10.5404
공인중개사학원	-10.5409
불교	-10.5411
▁복제	-10.5412
▁보완	-10.5418
▁않았습니다	-10.542
▁알림설정	-10.5423
▁댄스	-10.5426
▁저희가	-10.5429
세션	-10.5429
▁개별	-10.5431
수영	-10.5432
▁케이블	-10.5435
▁원인	-10.5435
보드	-10.5436
운전	-10.5437
제이	-10.5438
▁고려대학교	-10.5441
왜	-10.5442
▁주인공	-10.5443
▁id	-10.5446
▁참석	-10.5446
검색	-10.5448
▁플라스틱	-10.545
▁상황이	-10.5453
▁sub	-10.5453
▁딱	-10.5454
어서	-10.5462
▁인간의	-10.5463
인문학	-10.5464
wr	-10.5466
▁있음	-10.5469
맛	-10.5469
▁방사선	-10.5473
섬	-10.5479
▁나옵니다	-10.548
▁아티스트	-10.5482
소장	-10.5486
▁부분을	-10.549
(3)	-10.5491
장관	-10.5491
ez	-10.5493
단지	-10.5499
푸드	-10.5504
권을	-10.5508
▁각각	-10.5508
wy	-10.5513
▁project	-10.5518
▁확인해보세요	-10.5519
회장	-10.5523
▁운전	-10.553
▁탐구	-10.553
세상	-10.553
픽	-10.5531
▁나이	-10.5531
gx	-10.5534
하러	-10.5534
:01	-10.5534
tr	-10.5537
작곡	-10.5537
소통	-10.5541
▁독립	-10.5541
▁양식	-10.5542
▁없고	-10.5545
서를	-10.5546
▁웨비나	-10.5547
concert	-10.5548
▁사태	-10.5548
▁자동화	-10.5549
▁패	-10.555
▁특집	-10.5552
개정	-10.5555
▁알고리즘	-10.5556
레슨	-10.5559
에서의	-10.556
요즘	-10.556
▁무기	-10.5561
▁vr	-10.5563
▁준비를	-10.5566
▁talk	-10.5566
▁당신의	-10.5567
:46	-10.5567
청년	-10.5567
낙	-10.5569
▁하는데요	-10.5569
▁리포트	-10.5573
▁good	-10.5574
▁수산	-10.5578
▁있어야	-10.5578
▁이재	-10.5578
▁자세	-10.5578
action	-10.5581
▁오디오	-10.5582
▁법인	-10.5586
▁만들었습니다	-10.5586
source	-10.5589
▁궁금하시다면	-10.5589
구글	-10.559
헤	-10.559
▁점점	-10.5592
▁꼬	-10.5592
템	-10.5593
춤	-10.5594
▁주고	-10.5594
▁채널에	-10.5598
▁학술	-10.5599
▁미니	-10.5604
4)	-10.5604
▁합격률	-10.5606
bid	-10.5607
▁높이고	-10.5607
닥터	-10.5607
꺼	-10.5607
▁성적	-10.5608
정원	-10.5612
▁썰	-10.5616
▁싶습니다	-10.5621
221	-10.5621
경매	-10.563
▁원칙	-10.5631
:57	-10.5633
▁mc	-10.5635
▁사람을	-10.5641
▁영상제작	-10.5641
▁공부방법	-10.5641
▁creative	-10.5642
▁class	-10.5643
▁의류	-10.5644
▁취미	-10.5649
▁이해와	-10.5654
▁생각이	-10.5658
지요	-10.5658
카메라	-10.5662
▁투자를	-10.5669
▁타고	-10.5669
▁선거	-10.5672
our	-10.5673
article	-10.5676
▁완벽한	-10.5679
▁계좌	-10.568
how	-10.5681
hm	-10.5683
임을	-10.5687
gt	-10.5687
▁고전	-10.5688
인이	-10.5689
▁수소	-10.569
▁섬	-10.569
▁science	-10.5691
샘플	-10.5693
▁생명과학	-10.5694
일자리	-10.5696
▁알기	-10.5699
▁비전	-10.5699
빅	-10.5702
같이	-10.5703
▁클래식	-10.5704
▁전세계	-10.5704
▁쉽지	-10.5707
수출	-10.5709
뮤직	-10.571
▁선도	-10.5711
▁기출문제풀이	-10.5715
▁티	-10.5717
표준	-10.5717
▁파트너	-10.5721
---------	-10.5722
▁사람은	-10.5722
우주	-10.5723
▁도구	-10.5724
▁수산물	-10.5726
▁보존	-10.5726
sun	-10.5727
▁ar	-10.5727
▁녹화	-10.5733
쯤	-10.5733
▁변화를	-10.5733
iz	-10.5734
커피	-10.5735
▁his	-10.5736
▁생태	-10.5738
전통	-10.5741
kl	-10.5742
▁시사	-10.5743
▁합격하기	-10.5743
되었다	-10.5745
jtbcnews	-10.5746
dt	-10.575
비전	-10.5756
다리	-10.5756
imbc	-10.5756
ten	-10.5763
vh	-10.5763
가입	-10.5769
실장	-10.577
신학	-10.5775
wl	-10.5776
라이	-10.5779
ple	-10.5781
▁부동산공법	-10.5783
▁유학	-10.5783
님과	-10.5785
▁유료	-10.5785
show	-10.5789
▁실기시험	-10.5794
▁per	-10.5797
받은	-10.5797
▁마감	-10.5799
▁중요성	-10.58
menu	-10.5801
베이	-10.5803
sf	-10.5803
쟁	-10.5804
사무소	-10.5807
tz	-10.5808
확	-10.5808
▁성격	-10.581
xo	-10.5811
끼	-10.5812
탐	-10.5812
talk	-10.5814
트로	-10.5815
▁안동	-10.5816
읍	-10.5817
▁실수	-10.5821
dk	-10.5822
▁사례를	-10.5829
수도	-10.583
▁누가	-10.583
상식	-10.5833
▁동향	-10.5834
▁강원	-10.5835
yg	-10.584
▁봉	-10.5841
▁인수	-10.5843
▁미국의	-10.5844
▁소방시설관리사	-10.5845
str	-10.5846
▁발사	-10.5849
pb	-10.5851
▁수원	-10.5852
jung	-10.5854
▁두번째	-10.5854
▁10%	-10.5854
자에게	-10.5855
▁이제는	-10.5858
▁앞으로도	-10.5858
▁중간	-10.5861
▁창조	-10.5862
▁상장	-10.5865
con	-10.5865
▁걸쳐	-10.5866
일까요	-10.5868
▁먹고	-10.5872
▁비롯한	-10.5875
연대	-10.5875
▁재생	-10.5881
경북	-10.5884
▁무조건	-10.5885
▁참조	-10.5887
▁수립	-10.5888
봤습니다	-10.5892
▁참고해주세요	-10.5892
english	-10.5892
팩	-10.5893
vucj	-10.5897
미용	-10.5898
900	-10.59
주요	-10.59
▁못하고	-10.5903
▁만화	-10.5904
▁국악	-10.5905
:56	-10.5906
▁사람의	-10.5907
하려고	-10.5909
▁김정	-10.5913
▁하게	-10.5918
▁사용된	-10.5923
▁나아가	-10.5926
인가요	-10.5929
▁언	-10.593
▁철저한	-10.5934
▁한편	-10.5947
9%	-10.5949
▁기회를	-10.595
▁습관	-10.5952
iq	-10.5955
▁들고	-10.5955
▁수집	-10.5956
▁머리	-10.5956
▁깊이	-10.5961
)"	-10.5962
hn	-10.5963
▁영상도	-10.5964
▁무엇이	-10.5966
독일	-10.5966
수원	-10.5966
eduwill	-10.5967
▁yonhap	-10.5968
묵	-10.5971
▁전형	-10.5977
ton	-10.5977
▁dr	-10.5977
▁때는	-10.5979
▁먹는	-10.5981
▁뒷	-10.5983
교육을	-10.5984
▁차단	-10.599
▁kt	-10.5992
▁하나로	-10.5993
mn	-10.5999
▁32	-10.6
지지	-10.6001
▁제작된	-10.6004
들어	-10.6009
apple	-10.6011
ix	-10.6015
▁기원합니다	-10.6015
▁인체	-10.6018
▁이해할	-10.6018
위를	-10.6019
▁과년도	-10.6022
▁조언	-10.6023
상을	-10.6024
res	-10.6026
pg	-10.6027
가치	-10.6028
▁대해서는	-10.603
:49	-10.6035
▁밝혔다	-10.6035
▁매력	-10.6036
▁어려워	-10.6037
심사	-10.6039
▁문화를	-10.604
▁이야기가	-10.6042
/9	-10.6042
first	-10.6045
▁여러가지	-10.6045
▁시작하는	-10.6047
▁속도	-10.6048
▁진심으로	-10.6051
▁성능	-10.6051
lv	-10.6053
▁일하는	-10.6054
캐드	-10.6054
:39	-10.6056
방역	-10.6056
몸	-10.6057
▁원하시는	-10.6058
▁말했다	-10.6058
▁네이버카페	-10.606
▁주셔서	-10.6062
▁po	-10.6062
▁강한	-10.6065
est	-10.6066
▁출판사	-10.6067
연극	-10.6067
tm	-10.6069
▁역임	-10.6069
쌤이	-10.607
▁센서	-10.6072
▁지하	-10.6072
▁신입	-10.6072
▁ho	-10.6072
▁발생한	-10.6073
▁앵커	-10.6074
xa	-10.6075
벤	-10.6077
▁많	-10.6077
▁책임지는	-10.6078
ies	-10.608
▁국회의원	-10.6086
▁상호	-10.6088
리그	-10.6088
▁무엇일까요	-10.6091
▁주시기	-10.6092
연합	-10.6093
▁보러	-10.6093
▁했다	-10.6097
시스	-10.6098
▁노력하겠습니다	-10.6103
▁접속	-10.6106
▁support	-10.6107
hyun	-10.6109
실제	-10.6109
▁빅	-10.6109
▁dance	-10.611
creative	-10.6115
▁정확하게	-10.6116
▁dis	-10.6117
▁말을	-10.6117
press	-10.6118
인생	-10.612
▁축	-10.6122
ey	-10.6122
jr	-10.6128
▁tvhttp	-10.6129
▁상황을	-10.6131
맵	-10.6134
님들	-10.6135
▁되겠습니다	-10.6136
uz	-10.6137
▁기초이론	-10.6138
연구센터	-10.614
짱	-10.614
▁보도입니다	-10.6141
001	-10.6143
▁찍어	-10.6144
tel	-10.615
▁car	-10.6151
썰	-10.6152
음식	-10.6153
▁인프라	-10.6154
hee	-10.6154
▁파트	-10.6154
외국어	-10.6155
사실	-10.6157
▁케이	-10.6157
▁33	-10.6158
군무원	-10.6158
***	-10.616
대를	-10.616
▁산업의	-10.6163
▁신체	-10.6164
스티	-10.6165
▁방안을	-10.6165
▁웃	-10.6169
패턴	-10.6173
univ	-10.6174
리더	-10.6176
------	-10.6176
거든요	-10.6182
▁보상	-10.6182
▁심리학	-10.6184
▁가까이	-10.6186
▁끼	-10.6187
우리나라	-10.6188
공방	-10.6189
점검	-10.6189
▁그리	-10.619
▁사무	-10.6191
▁류	-10.6196
▁종이	-10.6198
캐	-10.6199
방지	-10.62
▁보유한	-10.62
▁종사자	-10.62
▁가야	-10.6209
▁00	-10.6212
dp	-10.6215
좌	-10.6215
수가	-10.6215
축구	-10.6216
▁지역사회	-10.6221
▁명의	-10.6224
낼	-10.6225
힐링	-10.6227
영상편집	-10.623
▁운용	-10.6235
▁language	-10.6235
상태	-10.6236
펌	-10.6238
▁역사를	-10.6239
▁추억	-10.6242
▁지금은	-10.6242
공단	-10.6242
▁뷰티	-10.6242
▁만나보실	-10.6243
힐	-10.6244
닷	-10.6245
▁남겨	-10.6248
▁형태	-10.6249
cb	-10.625
▁기본서	-10.6251
▁브	-10.6251
▁캐	-10.6251
▁지지	-10.6253
-4	-10.6255
사건	-10.6258
▁작품을	-10.6259
▁축제	-10.6262
sky	-10.6263
▁차이가	-10.6264
▁안전관리	-10.6268
생명과학	-10.6269
영역	-10.6273
항상	-10.6274
▁개인적인	-10.6276
홍보영상	-10.6277
▁효과가	-10.6277
▁경영학	-10.6279
경험	-10.6281
▁help	-10.6281
▁90	-10.6286
인력	-10.6287
이렇게	-10.6287
세포	-10.6288
▁시대에	-10.629
modoo	-10.6292
트렌드	-10.6294
남자	-10.6296
▁웹사이트	-10.6297
▁눈에	-10.6298
▁검찰	-10.6298
선생	-10.63
▁쌓	-10.631
꼬	-10.631
7&	-10.6311
미터	-10.6315
:11	-10.6317
dm	-10.6317
▁cj	-10.6318
▁토대로	-10.632
플레이	-10.6322
site	-10.6324
▁초급	-10.633
자유	-10.6332
▁대안	-10.6332
▁갈등	-10.6333
▁등에서	-10.6334
선박	-10.6338
▁오시면	-10.6343
▁사연	-10.6343
▁이하	-10.6349
▁예고	-10.635
중소기업	-10.6354
박스	-10.636
비행	-10.6362
이죠	-10.6362
=2	-10.6366
▁물리학	-10.6367
/*	-10.637
▁소개해	-10.637
▁고객의	-10.6371
▁대규모	-10.6374
더라도	-10.6375
220	-10.6375
▁대중	-10.6376
▁뉴스의	-10.6377
▁인근	-10.6382
▁이승	-10.6382
get	-10.6383
플랫폼	-10.6383
▁조립	-10.6384
세종사이버대학교	-10.6385
uy	-10.6386
tor	-10.6387
친구	-10.6389
▁이번에	-10.6392
▁저장	-10.6396
▁연장	-10.6396
였던	-10.6397
ling	-10.64
비를	-10.64
도면	-10.6401
▁설명했습니다	-10.6401
int	-10.6402
▁잊지	-10.6402
▁시절	-10.6405
라디오	-10.6406
과년도	-10.6408
▁위협	-10.6408
▁other	-10.6411
욕	-10.6411
▁뉴욕	-10.6412
▁선배	-10.6416
유치원	-10.6417
필수	-10.6418
▁밝혀	-10.6421
1-	-10.6423
▁세금	-10.6423
꾼	-10.6423
▁제약	-10.6424
▁활용할	-10.6425
sen	-10.6426
▁시점	-10.6428
ef	-10.6429
▁비해	-10.6432
드로잉	-10.6432
▁법칙	-10.6437
▁과장	-10.6439
▁격	-10.644
▁허가	-10.6445
▁초대	-10.6445
수입	-10.6449
tx	-10.645
▁`	-10.645
▁high	-10.6451
uu	-10.6453
▁재테크	-10.6453
▁주거	-10.6453
▁보관	-10.6458
▁언급	-10.6458
▁ga	-10.6462
꼭	-10.6464
순환	-10.6467
▁취준생	-10.6468
주관	-10.647
롤	-10.647
제어	-10.6471
▁합의	-10.6471
▁나섰습니다	-10.6472
▁했던	-10.6473
시즌	-10.6477
선교	-10.6478
회원	-10.6486
..."	-10.6487
▁일주일	-10.6488
유아	-10.6488
문법	-10.6488
▁지원하는	-10.6489
▁경매	-10.649
▁2008	-10.6491
능	-10.6492
▁약속	-10.6492
을까	-10.6493
하시	-10.6493
▁그럼	-10.6495
였다	-10.6495
▁위성	-10.6498
위기	-10.6499
▁산업기사	-10.65
▁열어	-10.65
▁오랜	-10.6504
짝	-10.6504
네이버카페	-10.6505
▁깊은	-10.6506
▁아래의	-10.651
rk	-10.6513
핵심	-10.6515
로써	-10.6523
중인	-10.6525
▁여러분들의	-10.6526
▁김태	-10.6529
▁문제는	-10.6537
700	-10.6539
▁받지	-10.6539
▁친구들	-10.6539
▁프리	-10.6541
wn	-10.6543
ess	-10.6547
asq	-10.6548
무료강의	-10.6549
ara	-10.6555
퇴	-10.6558
▁토목	-10.6558
▁확정	-10.6559
감사	-10.6561
▁시작으로	-10.6562
▁알람설정	-10.6562
마켓	-10.6563
sn	-10.6563
▁수석	-10.6565
▁중국의	-10.657
av	-10.6572
▁조작	-10.6574
▁생성	-10.6576
▁외국어	-10.6576
bt	-10.6578
▁복합	-10.6579
▁나올	-10.658
▁동시	-10.6582
▁기여	-10.6583
01_	-10.6585
원이	-10.6586
600	-10.6587
▁기능사	-10.659
form	-10.6593
▁디스플레이	-10.6594
산림	-10.6599
컨	-10.6599
인재	-10.66
▁나오고	-10.66
mer	-10.6601
▁쓰레기	-10.6603
▁액	-10.6605
category	-10.6607
▁안보	-10.6608
솔루션	-10.661
▁있었다	-10.6612
▁독학	-10.6613
▁etf	-10.6613
▁뿌리	-10.6615
▁항목	-10.6615
▁경우에도	-10.6616
진흥	-10.6618
▁가득	-10.6619
▁관련해	-10.6623
▁핵심이론	-10.6624
문화예술	-10.6632
▁pdf	-10.6633
▁것에	-10.6635
▁전북	-10.6639
▁서점	-10.664
하려	-10.664
감을	-10.6641
ster	-10.6642
▁말합니다	-10.6645
버린	-10.6648
▁긴	-10.6654
▁기준으로	-10.6654
▁일상을	-10.6654
갑니다	-10.6655
ict	-10.6655
_2	-10.666
▁춤	-10.6668
kj	-10.6668
요원	-10.6671
▁의심	-10.6672
▁최초의	-10.6672
한글	-10.6673
▁아프리카	-10.6675
▁모색	-10.6676
▁엔지니어	-10.6678
비대면	-10.6678
식을	-10.6679
▁부분은	-10.6679
▁칼	-10.6679
았습니다	-10.6681
봅니다	-10.6682
놀	-10.6682
컴퍼니	-10.6682
▁차례	-10.6682
her	-10.6685
▁폭발	-10.6685
119	-10.6686
▁채팅	-10.6686
물리학	-10.6686
-2.	-10.6686
▁비율	-10.6687
▁보급	-10.6687
▁절반	-10.6688
▁test	-10.6688
▁know	-10.6689
▁추천하는	-10.669
교정	-10.6691
ner	-10.6694
▁연락주세요	-10.6697
▁높아	-10.6701
뜨	-10.6703
룩	-10.6703
▁본사	-10.6704
▁their	-10.6705
시작	-10.6706
풀이	-10.6707
자산	-10.671
▁농촌	-10.6712
캠프	-10.6713
▁지속적으로	-10.6714
▁계정	-10.6715
심화	-10.6715
ua	-10.6721
자로	-10.6721
하다고	-10.6721
▁study	-10.6723
골드	-10.6724
xc	-10.6727
▁하실	-10.6727
폴	-10.6729
▁담당자	-10.673
▁훨씬	-10.6731
노동	-10.6734
킴	-10.6737
▁말이	-10.674
▁매체	-10.6742
▁무인	-10.6743
▁질문은	-10.6745
▁측은	-10.6745
▁사과	-10.6747
nf	-10.6748
▁결합	-10.6749
방문	-10.6752
겠죠	-10.6756
check	-10.6757
contact	-10.6763
▁학문	-10.6764
xy	-10.6765
마당	-10.6774
▁없다고	-10.6775
▁ucc	-10.6776
▁y	-10.6776
한편	-10.6778
red	-10.678
▁하이라이트	-10.6781
▁교수진	-10.6783
승무원	-10.6785
▁돼	-10.6785
▁단독	-10.6787
▁im	-10.6787
▁넣어	-10.6787
자동화	-10.679
▁캠페인	-10.679
ray	-10.6791
▁의약품	-10.6796
들로	-10.6796
증시	-10.6797
▁궁금증을	-10.6799
~5	-10.68
렛	-10.68
xe	-10.6802
▁박물관	-10.6811
▁알아보자	-10.6812
law	-10.6813
▁축하	-10.6814
▁노출	-10.6815
졌	-10.6817
uni	-10.6817
▁공채	-10.6817
▁분양	-10.6819
충남	-10.682
력이	-10.682
▁화요일	-10.6822
7%	-10.6824
국악	-10.6826
▁안경	-10.6826
▁전망입니다	-10.6827
이기도	-10.6827
▁시스템을	-10.6827
▁있었	-10.6828
zu	-10.6829
▁하락	-10.6833
▁선발	-10.6833
▁유망	-10.6835
▁것들	-10.6836
▁교정	-10.6839
등을	-10.6841
▁보건복지부	-10.6848
▁개강	-10.685
추가	-10.6852
▁올라	-10.6853
수록	-10.6855
리기	-10.6856
자기	-10.6863
▁축산	-10.6865
▁center	-10.6868
2011	-10.687
wc	-10.6873
▁song	-10.6873
▁녹	-10.6875
▁궁금증	-10.6881
▁교과	-10.6882
▁지식과	-10.6883
▁마이	-10.6884
▁가입하여	-10.6884
느	-10.6886
예약	-10.6888
작물	-10.6888
▁감각	-10.6891
▁상황에	-10.6892
▁오피스	-10.6892
▁포함한	-10.6895
▁넘게	-10.6898
jd	-10.6899
item	-10.69
▁오염	-10.69
분의	-10.69
▁안전성	-10.6902
▁자료는	-10.6903
▁1,2	-10.6904
▁연구를	-10.6906
인간	-10.6907
▁하시면	-10.691
▁바꿔	-10.6912
sl	-10.6918
-0	-10.6918
자금	-10.6919
점이	-10.6923
▁이른바	-10.6926
kq	-10.6928
▁근육	-10.6929
▁벽	-10.693
yy	-10.6931
fy	-10.6934
▁거리두기	-10.6935
▁김용	-10.6941
▁드림	-10.6943
영상은	-10.6945
▁business	-10.6946
pw	-10.6946
▁영상과	-10.6946
▁제재	-10.6948
▁빠르고	-10.6948
겼	-10.6953
싸	-10.6955
▁제기	-10.6956
▁듯	-10.6958
편입	-10.6959
tl	-10.6959
과는	-10.696
▁품	-10.6965
▁미래의	-10.6965
설정	-10.6966
문자	-10.6967
▁근거	-10.6968
qq	-10.697
쇼핑몰	-10.6971
▁메뉴	-10.6972
분들이	-10.6973
▁취재했습니다	-10.6973
▁지난달	-10.6974
차원	-10.6974
▁알아보고	-10.6976
▁contact	-10.6978
천여	-10.6979
▁일반기계기사	-10.6981
배울학	-10.6981
▁차세대	-10.6982
fx	-10.6985
▁artist	-10.6985
▁투자에	-10.6986
email	-10.6989
▁알면	-10.6989
}	-10.699
▁그의	-10.699
▁also	-10.6991
▁질문을	-10.6993
▁안정	-10.6994
ring	-10.6994
내가	-10.6994
▁02)	-10.6995
과연	-10.6997
빵	-10.6999
▁now	-10.7001
▁쓰기	-10.7001
▁호주	-10.7001
fs	-10.7003
▁라디오	-10.7004
▁협의	-10.7007
겠	-10.7008
평화	-10.7008
▁솔루션을	-10.7009
듣기	-10.7011
일에	-10.7012
way	-10.7015
▁빠져	-10.7017
새로운	-10.7019
1000	-10.702
트라	-10.702
▁맛보기	-10.7021
▁원격	-10.7022
▁mi	-10.7025
sebasi	-10.7026
궁금한	-10.7028
공업	-10.7028
▁ᅲᅲ	-10.7028
▁실용	-10.7029
▁공모	-10.7029
학사	-10.7031
▁무료제공	-10.7032
▁유투브	-10.7033
▁감성	-10.7033
수의	-10.7033
▁환경을	-10.7036
▁담았습니다	-10.704
마트	-10.7042
핀	-10.7046
▁심사	-10.7047
배우기	-10.7047
해석	-10.7052
▁license	-10.7052
▁학생의	-10.7054
▁op	-10.7055
▁방송국	-10.7056
▁생생한	-10.7058
드리겠습니다	-10.706
▁기기	-10.706
▁채널은	-10.7062
▁있죠	-10.7062
2013	-10.7063
▁모임	-10.7065
▁범	-10.7065
▁선교	-10.7067
▁자금	-10.7069
대가	-10.7071
조원	-10.7073
▁보수	-10.7073
player	-10.7077
무기	-10.7077
dh	-10.7078
▁돕기	-10.7082
sj	-10.7082
hp	-10.7083
ana	-10.7084
▁진입	-10.7085
먼	-10.7091
수질환경기사	-10.7093
과장	-10.7093
출판	-10.7095
▁캐나다	-10.7095
▁실행	-10.7096
hq	-10.7096
mz	-10.7097
nm	-10.7101
den	-10.7104
양성	-10.7109
회로	-10.711
모집	-10.711
소식	-10.7113
▁레슨	-10.7114
▁사기	-10.7114
dl	-10.7115
1@	-10.7117
hw	-10.7119
도움이	-10.7121
podbbang	-10.7125
smart	-10.7126
연봉	-10.7126
▁피해를	-10.7127
lf	-10.7129
▁권리	-10.713
경제학	-10.713
▁샤	-10.7136
숭	-10.7139
▁맞게	-10.7142
▁주얼리	-10.7143
▁lee	-10.7145
▁활용해	-10.7145
▁프로필	-10.7145
▁위원장	-10.7146
▁교양	-10.7146
늘	-10.7148
▁신뢰	-10.7149
▁보건의료	-10.715
400	-10.7153
▁혹시	-10.7153
웰	-10.7153
▁cad	-10.7155
공항	-10.7157
▁유기	-10.7157
보았습니다	-10.7157
프린터	-10.7158
상의	-10.7159
▁작동	-10.716
띠	-10.7161
건물	-10.7163
▁도와	-10.7165
bx	-10.7165
%3	-10.7165
속도	-10.7166
eh	-10.7167
2010	-10.7168
출판사	-10.7168
수소	-10.7169
▁작업형	-10.717
▁발생하는	-10.7172
옷	-10.7172
order	-10.7173
▁응시	-10.7174
▁플러스친구	-10.7176
dw	-10.7176
엔지니어링	-10.7177
▁이날	-10.7177
▁저에게	-10.7177
콩	-10.7178
aj	-10.7179
동영상강의	-10.7181
전남	-10.7181
▁사용되는	-10.7187
▁인권	-10.7187
pn	-10.7196
=3	-10.7199
▁불러	-10.72
도자기	-10.7201
▁자율	-10.7203
수사	-10.7203
타워	-10.7204
하겠다는	-10.7204
▁있음을	-10.7205
▁부장	-10.7208
ax	-10.7209
▁않았	-10.7213
▁광고문의	-10.7213
사와	-10.7218
oa	-10.7219
▁발전을	-10.7222
▁방법이	-10.7223
▁냉	-10.7224
▁편입	-10.7224
ler	-10.7224
▁ba	-10.7225
동화	-10.7226
▁잡아	-10.7227
▁필요성	-10.7229
창원	-10.7232
uv	-10.7234
실전	-10.7234
▁유용한	-10.7235
▁규모의	-10.7236
▁문재인	-10.7236
▁45	-10.7239
윈	-10.724
겠다고	-10.7242
▁스트리밍	-10.7248
:59	-10.7251
▁그리는	-10.7253
내신	-10.7253
였	-10.7254
▁애플	-10.7254
▁균형	-10.7254
스타트업	-10.7255
▁보통	-10.7255
▁보내주세요	-10.7257
▁조형	-10.7258
gd	-10.7259
artist	-10.7262
chang	-10.7264
명은	-10.7265
▁시청해주셔서	-10.7266
00:1	-10.7269
tb	-10.7272
▁some	-10.7274
▁중에서	-10.7274
문의전화	-10.7277
▁둔	-10.7279
▁바라며	-10.7287
▁전원	-10.7288
파이	-10.729
chi	-10.729
▁싶어	-10.729
▁만날	-10.7291
▁질의응답	-10.7291
222	-10.7291
▁검색해	-10.7292
▁36	-10.7294
겠다는	-10.7295
▁평가를	-10.7295
제를	-10.7297
▁무선	-10.7298
▁first	-10.7298
유진	-10.7298
tap	-10.7299
▁택배	-10.73
▁납품	-10.7301
]1.	-10.7302
▁커뮤니케이션	-10.7302
반응	-10.7303
것이	-10.7304
경영학과	-10.7305
하려는	-10.7305
▁들어보	-10.7311
▁아니다	-10.7313
▁made	-10.7314
▁조종사	-10.7315
▁보인다	-10.7315
정말	-10.7316
수익	-10.7318
▁봤습니다	-10.7318
▁세계적인	-10.7323
시사	-10.7329
▁hd	-10.7329
▁김상	-10.7334
▁전기산업기사	-10.7336
직공무원	-10.7336
-%	-10.7336
리아	-10.7338
cw	-10.7338
▁34	-10.734
▁안전하게	-10.7343
▁만나요	-10.7343
▁정복	-10.7345
▁농산물	-10.7346
▁준비하시는	-10.7347
add	-10.7347
▁때문	-10.7348
▁발생할	-10.7352
/8	-10.7354
▁150	-10.7355
선을	-10.7356
xk	-10.7356
중에	-10.7357
▁led	-10.7358
오마국	-10.7358
eq	-10.7359
uh	-10.736
▁포기	-10.7361
요소	-10.7361
▁취업을	-10.7361
간호사	-10.7361
타임	-10.7364
▁프	-10.7364
▁라이프	-10.7364
▁질문에	-10.7366
▁올릴	-10.7367
step	-10.7367
ship	-10.7368
베스트	-10.7371
▁해킹	-10.7373
▁증상	-10.7374
브리	-10.7375
처음	-10.7377
▁쓴	-10.7382
위험	-10.7383
진다	-10.7384
흔	-10.7384
스러운	-10.7384
▁목소리	-10.7384
vj	-10.7385
교류	-10.7385
▁방법으로	-10.7386
▁seoul	-10.7388
vk	-10.7388
wowtv	-10.7388
▁해군	-10.7393
만을	-10.7395
▁대표적인	-10.7395
▁출범	-10.7396
▁위생	-10.7397
▁언제든지	-10.7401
▁노력하고	-10.7401
)2.	-10.7401
텔	-10.7402
미술관	-10.7405
▁her	-10.7408
lh	-10.7409
▁본부장	-10.741
▁않도록	-10.741
직업전문학교	-10.7412
서는	-10.7413
소프트웨어	-10.7418
네일	-10.7419
▁si	-10.7421
global	-10.7422
앙	-10.7424
▁프로세스	-10.7424
국장	-10.7424
vt	-10.7425
▁real	-10.7429
▁논술	-10.7429
▁버스	-10.743
어떻게	-10.743
light	-10.743
빠	-10.7432
측정	-10.7432
▁번호	-10.7432
rh	-10.7435
▁원격교육	-10.7437
▁생기	-10.7437
-7	-10.7438
▁du	-10.7439
▁금지합니다	-10.7441
▁tip	-10.7448
▁이론을	-10.7449
▁습득	-10.7453
▁고정	-10.7456
tube	-10.7457
▁운항	-10.7459
vc	-10.746
▁솔	-10.746
▁불안	-10.7461
줌	-10.7467
__	-10.7468
sharing	-10.7469
▁개발에	-10.747
▁공식홈페이지	-10.7472
jc	-10.7472
보육교사	-10.748
▁코스	-10.748
▁웹툰	-10.7481
회화	-10.7482
ew	-10.7483
▁경우에는	-10.7483
시키고	-10.7483
프로그래밍	-10.7484
▁일단	-10.7484
ser	-10.7484
센서	-10.7488
의약품	-10.749
▁퇴	-10.749
대응	-10.7492
▁읽는	-10.7497
yt	-10.7504
nz	-10.7504
에요	-10.7505
▁시연	-10.7507
▁예시	-10.7508
▁도착	-10.7509
▁오히려	-10.7509
듀	-10.751
▁이유가	-10.7511
▁job	-10.7512
jb	-10.7513
▁열고	-10.7514
그리기	-10.7514
▁근	-10.7514
▁본인에게	-10.7517
real	-10.7521
랄	-10.7523
▁초등학교	-10.7525
kiwoom	-10.7529
xd	-10.7529
▁사운드	-10.7529
하다는	-10.7529
▁나오	-10.7536
▁technology	-10.7538
만화	-10.7538
▁신설	-10.7538
공급	-10.7539
▁분들의	-10.7543
▁결과가	-10.7548
▁through	-10.755
지금까지	-10.7552
=5	-10.7555
▁보석	-10.7556
아이비컴퓨터교육닷컴	-10.7558
▁이론과	-10.756
▁새벽	-10.7562
통일	-10.7566
▁불리는	-10.7567
현상	-10.7567
인공지능	-10.7569
▁동아리	-10.7569
▁시범	-10.757
▁풍부한	-10.7572
▁둘	-10.7575
▁전문기업	-10.7575
wu	-10.7576
으니	-10.7576
ari	-10.7577
조합	-10.7579
했	-10.7581
하니	-10.7582
=0	-10.7583
▁회계사	-10.7584
농협	-10.7588
렬	-10.7592
▁개론	-10.7593
▁것처럼	-10.7596
gong	-10.7597
uf	-10.7599
▁트럼프	-10.7599
▁만나다	-10.7604
eg	-10.7604
칸	-10.7608
▁알아본다	-10.7612
그래픽	-10.7612
▁vi	-10.7614
▁시대를	-10.7614
▁지리	-10.7614
▁제외	-10.7619
▁자유롭게	-10.7619
▁생태계	-10.7622
▁활용하여	-10.7622
▁입주	-10.7623
▁지역의	-10.7625
깨	-10.7628
▁도시재생	-10.763
에어	-10.7632
지난해	-10.7633
▁관리자	-10.7634
다운	-10.7634
▁작문	-10.7634
전주	-10.764
rl	-10.764
포항	-10.764
시고	-10.7644
cast	-10.7649
받고	-10.7649
▁조기	-10.7649
어린이집	-10.765
▁여부	-10.7651
▁최소	-10.7651
▁50%	-10.7655
굴	-10.7655
▁국방부	-10.7658
만으로	-10.7658
논	-10.7658
▁허용	-10.7661
license	-10.7662
▁브리핑	-10.7662
▁리더	-10.7663
▁일본의	-10.7671
▁슬	-10.7673
▁유명한	-10.7676
▁펼쳐	-10.7678
▁딸	-10.7679
스케치	-10.768
그린	-10.7684
▁원장님	-10.7685
스님	-10.7686
/1992	-10.7687
dae	-10.7687
hong	-10.769
eo	-10.769
▁소설	-10.769
▁졸업생	-10.769
개를	-10.7692
▁도약	-10.7695
seq	-10.7695
sing	-10.7697
▁세무	-10.7698
jn	-10.7698
▁교체	-10.7702
zq	-10.7703
▁피해자	-10.7704
▁설명합니다	-10.7706
그러나	-10.7706
▁신입사원	-10.7708
무료인강	-10.7709
▁포항	-10.7709
▁대출	-10.7711
논문	-10.7712
▁해양경찰	-10.7716
전단지	-10.7717
click	-10.7717
▁fun	-10.7718
동기	-10.7718
gj	-10.7718
▁사용한	-10.7719
▁차이점	-10.7722
▁김경	-10.7724
시킨	-10.7728
해지는	-10.7731
▁멀티미디어	-10.7737
▁이내	-10.7742
봐요	-10.7742
만한	-10.7751
ob	-10.7753
hz	-10.7753
▁민법	-10.7756
▁꾸	-10.7757
▁개념을	-10.7758
▁컨	-10.7759
▁자산	-10.7763
▁들려주는	-10.7764
조정	-10.7767
▁대한민국의	-10.7769
께	-10.777
큰	-10.7772
▁놀라운	-10.7774
▁드릴	-10.7775
gosi	-10.7776
▁보이	-10.7776
▁미치는	-10.7777
▁빼	-10.778
▁불편	-10.7783
set	-10.7784
사이언스	-10.7786
▁실무에	-10.7787
한테	-10.7789
▁da	-10.7789
▁달라	-10.779
▁주신	-10.7793
▁노력을	-10.7794
▁본문	-10.7795
님께서	-10.7797
▁02-5	-10.7801
▁신문	-10.7802
▁고수	-10.7802
▁그만	-10.7802
▁크	-10.7807
▁할지	-10.7807
▁고생	-10.7809
토목	-10.7811
▁읽	-10.7814
▁이유로	-10.7814
▁컨텐츠를	-10.7815
▁하나요	-10.7819
▁중학교	-10.782
코칭	-10.7824
114	-10.7825
▁시간에	-10.7826
▁살고	-10.7829
▁학생들	-10.7829
▁답변을	-10.7834
틴	-10.7834
▁환영합니다	-10.7837
졌다	-10.7838
자들의	-10.7839
cho	-10.7839
▁상세	-10.7841
▁global	-10.7842
▁만난	-10.7845
▁바닥	-10.7845
봤	-10.7848
!!!!	-10.7852
인권	-10.7853
ws	-10.7853
다큐	-10.7854
win	-10.7854
▁합동	-10.7856
▁대한항공	-10.7858
마리	-10.7862
▁출력	-10.7864
수산	-10.7866
▁시작부터	-10.7866
▁엘	-10.7866
해온	-10.7868
▁내용과	-10.787
▁나타났습니다	-10.7871
벤처	-10.7874
ref	-10.7874
▁폐기물	-10.7875
▁film	-10.7875
▁모두가	-10.7883
일반기계기사	-10.7883
▁기다립니다	-10.7886
▁달러	-10.7887
▁연세대학교	-10.7889
원의	-10.789
ao	-10.7892
▁바꾸는	-10.7893
사전	-10.7894
▁감시	-10.7894
기존	-10.7894
▁가까운	-10.7894
▁누려보세요	-10.7894
치고	-10.7895
▁서울특별시	-10.7895
gen	-10.7895
▁트	-10.7903
생각	-10.7906
▁없다는	-10.791
시험일정	-10.791
핵	-10.7911
▁법원	-10.7914
vq	-10.7914
yk	-10.7914
qw	-10.7917
이데일리	-10.792
▁산하	-10.7923
▁논	-10.7924
▁갑자기	-10.7924
▁!!	-10.7924
111	-10.7925
ebsi	-10.7925
▁금액	-10.7925
let	-10.7929
▁subtitle	-10.7933
조치	-10.7934
왔습니다	-10.7936
예배	-10.794
해주시면	-10.7941
전시회	-10.7942
yh	-10.7943
▁체계적으로	-10.7944
▁문장론	-10.7947
▁달려	-10.7949
▁향한	-10.7951
법에	-10.7953
▁임원	-10.7954
----	-10.7957
▁혐의로	-10.7958
▁적발	-10.796
▁air	-10.7964
▁작년	-10.7965
월에	-10.7967
oi	-10.7969
전환	-10.7973
vy	-10.7974
▁매니저	-10.7978
▁재정	-10.7981
▁data	-10.7983
대장	-10.7984
▁탄	-10.7984
▁본인	-10.7984
▁조금이나마	-10.7986
클릭	-10.7987
▁완강	-10.7993
▁올리는	-10.7993
ung	-10.7997
fd	-10.7998
jang	-10.8002
▁모든것	-10.8002
wiki	-10.8002
영어회화	-10.8002
ber	-10.8006
▁여러분을	-10.8006
▁방송을	-10.8009
엔진	-10.8012
00000	-10.8012
치유	-10.8015
▁북한의	-10.8017
▁라인	-10.8021
▁문화체육관광부	-10.8021
▁존	-10.8022
▁완화	-10.8023
act	-10.8024
희망	-10.8024
▁cs	-10.8025
▁강아지	-10.8029
공학부	-10.8031
▁수료	-10.8033
▁사진을	-10.8034
▁learning	-10.8035
과정을	-10.8039
gp	-10.8041
▁이끄는	-10.8043
▁자신이	-10.8044
모음	-10.8046
재난	-10.8047
지리	-10.8049
단기	-10.805
입학	-10.805
▁완벽하게	-10.8051
5)	-10.8055
▁강남구	-10.8057
▁경계	-10.8057
▁원주	-10.8058
▁블록체인	-10.8058
작성	-10.8059
▁레벨	-10.8062
품질	-10.8066
▁international	-10.807
▁평소	-10.807
이미지	-10.8071
▁후에	-10.8071
주셔서	-10.8075
▁동화	-10.8077
np	-10.8079
독일어	-10.808
▁people	-10.8081
▁노후	-10.8081
▁느낌	-10.8082
lx	-10.8082
▁재학생	-10.8082
▁ko	-10.8082
가정	-10.8084
▁digital	-10.8085
▁개념과	-10.8085
내기	-10.8086
리얼	-10.8086
▁인터뷰를	-10.8088
못	-10.8089
토지	-10.8093
쥬	-10.8094
second	-10.8098
▁클립	-10.8099
▁없을	-10.8101
▁우수한	-10.8103
▁그것이	-10.8103
▁쇼	-10.8104
체육회	-10.8104
diggle	-10.8106
▁푸	-10.8106
다시	-10.811
▁결혼	-10.8111
페어	-10.8111
▁서버	-10.8112
pdf	-10.8113
혜택	-10.8114
정의	-10.8114
▁ta	-10.8114
▁기술로	-10.8117
culture	-10.8118
▁어플	-10.8119
다이어트	-10.812
되었	-10.8126
모의고사	-10.813
닉	-10.8131
▁알게	-10.8132
▁원료	-10.8132
맞	-10.8133
하늘	-10.8135
직접	-10.8135
▁전문의	-10.8137
bh	-10.8142
▁교육학	-10.8145
▁원어민	-10.8146
▁면허	-10.8148
계의	-10.8148
ov	-10.8149
▁거예요	-10.8151
▁오세요	-10.8155
정시	-10.8158
기와	-10.8158
았	-10.8161
미국주식	-10.8161
▁치료제	-10.8162
러시아	-10.8167
탐구	-10.8168
▁제휴	-10.8169
▁열차	-10.817
▁want	-10.817
(4	-10.8172
▁개발을	-10.8178
▁동양	-10.8179
?#	-10.8179
공동	-10.8179
아침	-10.818
jg	-10.8181
▁놓고	-10.8182
▁ge	-10.8185
talkit	-10.8189
▁1000	-10.8191
▁논란이	-10.8192
▁있으신	-10.8193
apps	-10.8194
please	-10.8194
▁밥	-10.8194
▁데이터를	-10.8199
~10	-10.8205
▁만들어진	-10.8207
▁기부	-10.821
나눔	-10.821
재배	-10.821
shin	-10.8211
▁간단하게	-10.8212
백신	-10.8214
................	-10.8214
천억	-10.8218
vm	-10.8219
많이	-10.8219
▁전파	-10.8238
웨	-10.8239
yp	-10.824
지영	-10.8241
▁jo	-10.8242
사이버	-10.8243
hello	-10.8243
▁blog	-10.8246
▁기회가	-10.8247
df	-10.8248
▁상황입니다	-10.8249
pq	-10.8249
았다	-10.8251
스페인어	-10.8254
▁패널	-10.8254
▁보조	-10.8254
.....	-10.8255
화면	-10.8257
▁새해	-10.8257
▁조각	-10.8263
▁기원	-10.8264
스토어	-10.8265
▁아니고	-10.8265
▁즐길	-10.8267
빌	-10.8267
▁형태로	-10.8268
▁only	-10.827
셨	-10.8275
노하우	-10.8277
▁열리는	-10.8277
취미	-10.8277
셔야	-10.8278
지면서	-10.8279
▁중심의	-10.8281
목표	-10.8283
gv	-10.8284
▁교수가	-10.8286
▁곳에서	-10.8287
▁핫	-10.8288
▁맺	-10.8289
▁진행한	-10.8294
파티	-10.8295
▁키워	-10.8295
▁man	-10.8296
간호	-10.8297
▁받으실	-10.8298
었는데	-10.8299
역량	-10.8302
▁정보와	-10.8305
lr	-10.8305
톱	-10.831
유튜버	-10.831
▁관측	-10.8312
ay	-10.8313
휘	-10.8314
table	-10.8315
▁얻을	-10.8315
▁app	-10.8317
▁전반적인	-10.8317
▁2007	-10.8317
잇	-10.8318
▁놀	-10.8319
▁베스트	-10.832
연합회	-10.8321
충북	-10.8321
바람	-10.8322
▁이지	-10.8326
라이트	-10.8327
▁쇼핑	-10.8327
--------	-10.8329
tj	-10.8329
▁플러스	-10.8333
▁유출	-10.8334
지가	-10.8335
▁다들	-10.8335
동구	-10.8336
▁지원자	-10.8336
▁잠시	-10.8339
rr	-10.8341
▁주간	-10.8341
고민	-10.8341
▁나누어	-10.8345
▁숫자	-10.8345
▁추가로	-10.8346
▁업	-10.8348
▁커지고	-10.8348
▁다이어트	-10.8349
▁맞이	-10.835
777	-10.835
위성	-10.8351
gf	-10.8351
▁했는데	-10.8353
▁음원	-10.8354
▁플	-10.8356
근무	-10.8356
▁누리	-10.8357
wt	-10.8357
▁활	-10.8359
xn	-10.8359
임대	-10.8362
▁필답형	-10.8362
짜리	-10.8362
컬러	-10.8363
1004	-10.8364
bq	-10.8366
usp	-10.8366
▁발급	-10.8367
파워	-10.8367
lm	-10.8371
arirang	-10.8371
mic	-10.8373
▁합격생	-10.8374
▁문제점	-10.8374
없	-10.8374
타운	-10.8376
▁쓰고	-10.8377
인문	-10.8377
▁시작된	-10.8378
150	-10.8379
플랜	-10.8379
▁확실하게	-10.838
ven	-10.8382
▁사실이	-10.8383
▁연락처	-10.8385
wk	-10.8386
어야	-10.8387
gq	-10.8387
▁것이며	-10.8387
▁환영	-10.8388
▁통증	-10.8388
uo	-10.8389
▁준비하고	-10.8396
sound	-10.8398
▁따뜻한	-10.8403
▁이정	-10.8407
▁날씨	-10.841
▁만족도	-10.8412
▁체계적인	-10.8417
▁영어회화	-10.8421
▁고대	-10.8425
릉	-10.8433
포장	-10.8434
▁미생물	-10.8434
아주	-10.8435
sis	-10.8437
고급	-10.8437
▁선생님들	-10.8437
▁예제	-10.8438
▁라는	-10.8439
게요	-10.8439
▁혁명	-10.844
주고	-10.8441
▁일요일	-10.8441
▁입체	-10.8442
▁which	-10.8445
▁sound	-10.8447
▁화상	-10.8449
▁연간	-10.8449
jx	-10.8452
▁공지	-10.8453
▁180	-10.8454
▁ux	-10.8454
▁보고서	-10.8455
▁꿀	-10.8455
맛집	-10.8456
뉴스데스크	-10.8456
었어요	-10.8459
▁적응	-10.8459
▁투명	-10.8461
파크	-10.8461
주민	-10.8461
옹	-10.8461
세트	-10.8463
yang	-10.8463
피스	-10.8463
yc	-10.8463
사관학교	-10.8464
으로는	-10.8465
▁스펙	-10.8468
아프리카	-10.8469
▁그림을	-10.847
/30	-10.8476
oe	-10.8477
▁숙	-10.8479
예정	-10.8479
▁수준의	-10.8482
셔서	-10.8484
mar	-10.8485
정보센터	-10.8485
사무	-10.8487
▁부지	-10.8489
▁비슷한	-10.8491
▁이끌어	-10.8492
겠지만	-10.8492
현황	-10.8493
렸	-10.8493
▁주제는	-10.8493
▁민족	-10.8494
▁관세사	-10.8495
▁바른	-10.8497
▁위험물산업기사	-10.85
▁흑	-10.85
▁충격	-10.8503
▁밀착	-10.8503
▁보육교사	-10.8504
▁스트레스	-10.8505
mba	-10.8509
▁위에	-10.8513
▁제작에	-10.8513
▁pre	-10.8515
best	-10.8517
sq	-10.8518
▁경주	-10.8518
▁수밖에	-10.8521
재테크	-10.8521
tf	-10.8523
프랑스	-10.8527
▁대해서도	-10.853
yna	-10.853
▁컴	-10.8532
덴	-10.8534
▁확률	-10.8538
토목기사	-10.8538
wg	-10.8541
phone	-10.8541
bw	-10.8541
fq	-10.8543
▁당신이	-10.8545
연금	-10.8547
둥	-10.855
공고	-10.8553
▁가상	-10.8556
▁급등	-10.8558
ceo	-10.8559
▁중급	-10.856
▁company	-10.8563
▁화물	-10.8565
110	-10.8566
▁포토샵	-10.8566
180	-10.857
파워포인트	-10.8573
▁감염병	-10.8573
mh	-10.8574
골프	-10.8575
▁명강의	-10.8576
▁회로	-10.8577
▁육군	-10.8579
▁중입니다	-10.8579
▁않으	-10.8579
▁단위	-10.858
▁급식	-10.8581
▁exam	-10.8582
진료	-10.8583
하였으며	-10.8585
버터	-10.8587
▁research	-10.8588
qa	-10.8589
낭	-10.859
명으로	-10.859
hrd	-10.8593
▁평가인정	-10.8593
▁높습니다	-10.8596
▁거주	-10.8599
▁확인해주세요	-10.86
ᅲ	-10.8602
▁수영	-10.8603
안에	-10.8606
학점은행제	-10.8607
▁뉴딜	-10.861
▁등급	-10.8611
qc	-10.8614
난이도	-10.8614
^^*	-10.8615
01/	-10.8615
▁호흡	-10.8616
yong	-10.8617
▁개방	-10.8618
▁버튼	-10.8618
니아	-10.8619
▁쌀	-10.8619
밖에	-10.8619
원론	-10.862
eun	-10.862
드리고	-10.8621
105	-10.8628
▁통제	-10.8634
▁ui	-10.8638
pds	-10.8639
▁info	-10.8641
▁효율적인	-10.8642
now	-10.8642
강의를	-10.8643
▁운행	-10.8644
▁제주도	-10.8644
▁않으면	-10.8647
▁다큐멘터리	-10.8647
▁안에서	-10.8648
인식	-10.8649
▁취득을	-10.8649
친환경	-10.8649
▁이곳	-10.8652
▁기후변화	-10.8653
▁max	-10.8654
박문각임용	-10.8657
dn	-10.8658
문화재	-10.8658
나의	-10.866
good	-10.8662
mas	-10.8666
단어	-10.8669
~4	-10.8669
yi	-10.8672
-8	-10.8673
▁가동	-10.8674
겸	-10.8676
▁몰	-10.8683
졸업	-10.8684
▁고장	-10.8688
hg	-10.869
▁sh	-10.8691
생방송	-10.8693
디스플레이	-10.8694
end	-10.8696
초등학교	-10.8697
▁구체적인	-10.8699
▁인공	-10.8701
인들의	-10.8704
soo	-10.8704
▁ka	-10.8705
해진	-10.8707
▁정규	-10.8708
▁부부	-10.8711
▁유일의	-10.8711
▁**	-10.8711
from	-10.8712
house	-10.8712
▁교재는	-10.8713
▁unported	-10.8719
▁수익을	-10.8721
▁왔	-10.8724
▁바라	-10.8724
▁공고	-10.8724
개발자	-10.8724
▁문서	-10.8726
vd	-10.8727
과학관	-10.8732
zw	-10.8732
val	-10.8733
2%	-10.8734
▁올리	-10.8742
예비	-10.8744
▁기후	-10.8744
▁그는	-10.8745
▁합성	-10.8746
▁곳에	-10.8747
가고	-10.8748
▁erp	-10.875
▁대표이사	-10.8752
cam	-10.8754
▁종자	-10.876
▁대통령은	-10.8761
최고의	-10.8761
▁의미를	-10.8763
zj	-10.8766
360	-10.8767
▁step	-10.877
▁용기	-10.8773
▁어른	-10.8774
""	-10.8775
▁콘크리트	-10.8776
▁재무	-10.8776
▁사랑하는	-10.8777
▁탈출	-10.8777
070	-10.8779
▁현장에	-10.878
▁시간입니다	-10.8782
본원	-10.8782
▁온라인으로	-10.8782
ron	-10.8782
▁경제적	-10.8783
고려대학교	-10.8784
▁겪고	-10.8787
▁올립니다	-10.8787
▁구성되어	-10.8788
▁독해	-10.879
킨	-10.8791
허가	-10.8791
첩	-10.8794
jm	-10.8798
유지	-10.8798
▁벌써	-10.8801
기독교	-10.8801
유럽	-10.8801
성인	-10.8801
▁(2	-10.8803
▁재활용	-10.8805
fg	-10.8805
pj	-10.8807
▁개편	-10.8807
도금	-10.8809
▁필요하신	-10.881
bk	-10.8814
hj	-10.8815
모임	-10.8819
▁다산에듀	-10.8819
▁창원	-10.8821
성경	-10.8824
▁작용	-10.8826
한국사	-10.8828
쉽	-10.8829
법률	-10.8829
유학	-10.883
구독자	-10.883
공부법	-10.8837
▁농협	-10.8838
▁이종	-10.8839
▁가고	-10.8839
▁story	-10.884
▁건강을	-10.8842
▁근로자	-10.8843
▁합격의	-10.8844
▁색채	-10.8846
▁구독하세요	-10.8846
ator	-10.8848
▁충전	-10.885
▁보육	-10.8851
차산업혁명	-10.8851
▁관점	-10.8856
▁박람회	-10.8856
▁온라인교육기관	-10.8857
▁지하철	-10.8858
▁개관	-10.886
122	-10.8861
요약	-10.8862
mx	-10.8862
이사	-10.8863
농장	-10.8864
대형	-10.8864
▁높이는	-10.8865
이해	-10.8865
ren	-10.8866
▁국토	-10.8866
▁학습과목	-10.8866
▁국정감사	-10.8867
▁배달	-10.8868
wm	-10.8869
▁여기에	-10.887
yd	-10.8871
시키	-10.8873
▁이직	-10.8873
▁같다	-10.8876
▁시장의	-10.8877
체조	-10.8884
정보를	-10.8885
▁20%	-10.8885
xr	-10.8886
qv	-10.8889
립니다	-10.8889
▁신학	-10.889
▁pr	-10.8891
▁ppt	-10.8893
▁천연	-10.8894
▁오르	-10.8899
xj	-10.8902
열심히	-10.8904
▁나은	-10.8905
▁높이	-10.8908
▁도서관	-10.891
▁가슴	-10.8911
▁방문해	-10.8913
겁	-10.8914
사업자	-10.8915
갤러리	-10.8916
▁함수	-10.8916
▁웨딩	-10.8916
자들이	-10.8918
▁다소	-10.892
▁시청해	-10.892
영국	-10.8921
미용사	-10.8925
▁향해	-10.8925
▁after	-10.893
health	-10.8931
수상	-10.8931
▁왕초보	-10.8936
fn	-10.8938
음을	-10.8939
펀드	-10.8943
한약	-10.8945
할수	-10.8945
▁동기	-10.8946
▁장치	-10.8947
-10	-10.8948
▁화질	-10.8951
▁에피소드	-10.8951
nb	-10.8953
▁토양	-10.8954
▁they	-10.8954
팝	-10.8957
▁don	-10.8957
details	-10.8957
▁짚어	-10.8958
뚝	-10.8958
▁조치를	-10.896
mv	-10.8963
▁오랜만에	-10.8964
afreecatv	-10.8964
▁공유하고	-10.8966
접수	-10.8967
변경	-10.8969
▁실시간으로	-10.897
용으로	-10.8972
▁지도자	-10.8974
seo	-10.8975
▁김재	-10.8975
▁전면	-10.8978
▁언제든	-10.8983
▁어휘	-10.8983
▁지침	-10.8985
오픈	-10.8987
▁th	-10.8987
ger	-10.8987
▁보면서	-10.8993
뒤	-10.8994
▁방향을	-10.8994
▁나만의	-10.8994
▁공략	-10.8995
랭	-10.8995
▁본격	-10.8997
▁배관	-10.8997
▁take	-10.8998
▁거부	-10.8998
jv	-10.8998
▁나눔	-10.8999
에만	-10.8999
나노	-10.9001
정보시스템	-10.9003
멘토	-10.9005
장의	-10.9009
부자	-10.9011
▁봐	-10.9012
브리핑	-10.9012
film	-10.9014
▁성과를	-10.9014
▁tutorial	-10.9016
dq	-10.9017
방송국	-10.9018
▁컴퓨터와	-10.9018
.02.	-10.9019
스크	-10.9019
▁탐방	-10.9019
▁애널리스트	-10.9019
▁검사를	-10.9019
▁헬스케어	-10.9019
▁national	-10.9022
▁않을까	-10.9026
블리	-10.9026
▁media	-10.9028
▁변형	-10.9028
▁55	-10.9031
(2019	-10.9031
▁초보자	-10.9032
▁위탁	-10.9035
인턴	-10.9036
tg	-10.9036
▁공부할	-10.9037
▁나를	-10.9043
관세사	-10.9043
▁싹	-10.9044
ani	-10.9046
▁사실상	-10.9047
최고	-10.9047
이라도	-10.905
▁열렸습니다	-10.9054
교육학	-10.9055
▁씨가	-10.9056
▁결제	-10.9057
잖아요	-10.9063
▁댓글을	-10.9072
nn	-10.9073
화된	-10.9074
rg	-10.9074
▁대리	-10.9075
2-2	-10.9075
▁tvn	-10.9076
▁open	-10.908
▁its	-10.9082
가루	-10.9084
엄마	-10.9084
제공합니다	-10.9087
▁관광객	-10.909
▁bi	-10.9092
fz	-10.9094
-03	-10.9096
컨설턴트	-10.9098
청주	-10.9098
센터에서	-10.9099
주얼리	-10.9099
찌	-10.9107
▁받아보세요	-10.9108
▁창립	-10.9108
dedu	-10.9109
▁1080	-10.9111
▁리더십	-10.9112
금을	-10.9118
▁헌법	-10.9119
텐	-10.9119
▁경고	-10.9119
▁악기	-10.9123
2-1	-10.9123
▁전문가가	-10.9126
로드	-10.9127
님께	-10.9128
지로	-10.9129
company	-10.9129
체크	-10.9129
fanta	-10.9131
▁포함된	-10.9132
▁낮은	-10.9135
원으로	-10.9135
▁메인	-10.9138
dx	-10.9138
090	-10.9138
map	-10.9139
램	-10.9139
▁진행되고	-10.914
▁장면	-10.9142
▁미리보기	-10.9143
교과서	-10.9145
정훈	-10.9146
▁같	-10.9146
▁탑승	-10.9147
웨딩	-10.9147
짓	-10.9149
▁관람	-10.915
▁캠퍼스	-10.9152
▁파워	-10.9153
부가	-10.9153
▁기업분석	-10.9154
▁모집합니다	-10.9156
▁놓치지	-10.9156
필름	-10.916
uch	-10.9161
▁식당	-10.9162
제한	-10.9163
▁나선	-10.9164
▁wi	-10.9165
2022	-10.9166
▁펀드	-10.9168
로서의	-10.9173
둔	-10.9174
▁power	-10.9176
▁느껴	-10.9177
장에서	-10.9178
▁자율주행	-10.918
▁사용하여	-10.9181
cpa	-10.9182
▁점수	-10.9183
▁장례	-10.9184
따라	-10.9184
▁탑재	-10.9184
▁드러났습니다	-10.9185
▁into	-10.9186
관계법규	-10.9187
▁상대	-10.9188
▁그래도	-10.9188
tk	-10.9189
yw	-10.9189
르기	-10.9191
▁경호	-10.9195
면허	-10.9202
kp	-10.9205
▁미술관	-10.9206
▁그들의	-10.9207
▁부자	-10.9209
lq	-10.921
▁거죠	-10.9211
▁오프닝	-10.9211
양식	-10.9215
앞	-10.9216
주시면	-10.9219
기부	-10.922
▁증거	-10.9222
▁제조업	-10.9224
원은	-10.9225
▁고려대	-10.9225
▁달아	-10.9225
-01	-10.9226
▁행위	-10.9227
▁찾아가	-10.9228
▁출입	-10.9231
▁운송	-10.9233
bar	-10.9233
▁짜	-10.9235
▁기관입니다	-10.9235
▁fashion	-10.9235
드려	-10.9237
▁다섯	-10.9238
▁견적	-10.924
vn	-10.9241
ful	-10.9241
해보는	-10.9244
▁말하기	-10.9249
0101	-10.9249
▁끊	-10.925
이었다	-10.9251
그동안	-10.9252
▁순수	-10.9252
▁글쓰기	-10.9253
▁콘	-10.9255
안정	-10.9255
.5.	-10.9256
▁힘들	-10.9259
▁책임은	-10.926
▁굴	-10.9261
▁살펴	-10.9261
▁가서	-10.9262
zn	-10.9262
텀	-10.9264
가장	-10.9265
▁making	-10.9265
▁대통령이	-10.9268
▁이해하는	-10.927
▁지속적인	-10.9271
▁본인의	-10.9275
▁후원하기	-10.9276
겁니다	-10.9276
ration	-10.9277
▁정리해	-10.9277
▁오류	-10.9279
덤	-10.928
homepage	-10.928
▁분석을	-10.9281
너무	-10.9283
wp	-10.9284
▁정식	-10.9285
▁안전을	-10.9285
▁애플리케이션	-10.9288
wv	-10.9288
▁오토캐드	-10.9289
차전지	-10.9291
믹스	-10.9292
▁상당히	-10.9293
렌탈	-10.9293
좀	-10.9294
ice	-10.9294
1-1	-10.9295
딜	-10.9297
▁싶다	-10.9301
▁잘못된	-10.9304
▁소유	-10.9304
▁스페인어	-10.9305
려는	-10.9307
lw	-10.9308
▁상가	-10.9312
▁twitter	-10.9313
ym	-10.9313
미싱	-10.9315
▁리서치센터	-10.9316
▁인쇄	-10.9316
모형	-10.9316
구나	-10.9318
profile	-10.9318
▁공익	-10.932
▁drawing	-10.9321
▁lh	-10.9323
▁사업자	-10.9323
▁sp	-10.9323
▁설명해	-10.9325
▁드로잉	-10.9326
드릴	-10.9329
vf	-10.9336
▁식약처	-10.9339
nj	-10.934
▁불구하고	-10.9345
버튼	-10.9346
)3.	-10.9347
▁되었	-10.9349
교육론	-10.9349
▁구성된	-10.935
▁저도	-10.9351
냥	-10.9354
sports	-10.9355
▁cctv	-10.9355
공모전	-10.9355
lim	-10.936
본다	-10.9361
▁행정법	-10.9361
우리가	-10.9363
▁건조	-10.9364
full	-10.9366
바로가기	-10.9368
생리학	-10.9369
▁착	-10.9371
▁수가	-10.9372
xw	-10.9373
종류	-10.9373
▁website	-10.9373
배관	-10.9375
▁시대에듀	-10.9376
▁전반	-10.9376
▁교환	-10.9379
▁고통	-10.938
▁click	-10.9381
▁벗어나	-10.9381
▁청주	-10.9382
보도	-10.9382
영상에	-10.9382
▁모시고	-10.9383
굿	-10.9386
실적	-10.9387
▁iot	-10.9388
획	-10.939
러시아어	-10.9391
prof	-10.9391
▁평일	-10.9392
▁부정	-10.9393
이므로	-10.9396
연계	-10.9397
단독	-10.9399
▁노트	-10.9401
▁본질	-10.9402
▁ii	-10.9404
▁전문인력	-10.9404
▁강조했습니다	-10.9406
ium	-10.9408
▁다녀왔습니다	-10.9408
▁nbs	-10.9412
▁더배움	-10.9414
주식창	-10.9415
▁옆	-10.9416
▁연세대	-10.9419
▁내용으로	-10.9419
▁틀	-10.942
▁전문적인	-10.9421
▁과정에	-10.9423
쇠	-10.9425
받아	-10.9427
▁마케터	-10.9427
▁아이들	-10.9429
죄	-10.943
▁처음부터	-10.9431
받기	-10.9435
▁순위	-10.9435
▁마리	-10.9435
하였고	-10.9435
▁잘하는	-10.9436
▁diy	-10.9441
연맹	-10.9443
▁다양하고	-10.9443
bp	-10.9444
▁물건	-10.9444
더니	-10.9445
▁웃음	-10.9445
▁부작용	-10.9447
방송통신	-10.9448
▁되도록	-10.9451
cbs	-10.9453
▁믿고	-10.9454
▁월급	-10.9454
▁승객	-10.9454
_2019	-10.9458
▁대박	-10.9459
서류	-10.946
빅데이터	-10.9462
hx	-10.9463
▁현대차	-10.9464
led	-10.9468
키즈	-10.947
분을	-10.9471
ewsdq	-10.9471
범위	-10.9473
▁대표님	-10.9474
▁아이들이	-10.9474
▁나머지	-10.9475
ran	-10.9478
subscription	-10.948
rq	-10.9481
멸	-10.9483
합시다	-10.9484
cent	-10.9487
▁저작물	-10.9488
소프트	-10.9489
핏	-10.949
▁적극적으로	-10.9494
▁기술의	-10.9495
베이스	-10.9497
▁위주로	-10.9499
▁여수	-10.95
사상	-10.9502
▁생각하고	-10.9505
thebaeoom	-10.9508
▁1544-	-10.9508
첨	-10.951
lin	-10.9512
▁lo	-10.9512
tvn	-10.9514
▁강력한	-10.9515
▁재밌는	-10.9517
royalty	-10.9517
▁화성	-10.9517
▁제조업체	-10.9517
▁김지	-10.9518
fk	-10.952
zx	-10.9521
보면	-10.9524
▁소개영상	-10.9525
▁지진	-10.9527
북스	-10.9527
▁book	-10.9527
프라임	-10.9529
▁링크에서	-10.953
online	-10.9531
▁page	-10.9533
▁마시고	-10.9534
▁찍	-10.9534
qx	-10.9534
▁받으세요	-10.9535
▁고민을	-10.9537
▁계기	-10.9538
▁내고	-10.954
김영	-10.9541
이후	-10.9541
▁프랜차이즈	-10.9542
개혁	-10.9542
▁위로	-10.9546
▁부서	-10.9547
hh	-10.9548
▁el	-10.9552
▁이것	-10.9553
▁최강	-10.9553
▁[2019	-10.9553
▁시뮬레이션	-10.9553
▁직업을	-10.9555
▁course	-10.9556
▁무려	-10.9558
▁확진자	-10.9559
▁부분에	-10.956
툰	-10.9562
유리	-10.9562
▁대표카페	-10.9563
▁활용하세요	-10.9563
비트	-10.9564
▁방침입니다	-10.9564
▁패러다임	-10.9565
▁돕는	-10.9565
리서치	-10.9566
세무	-10.9568
수를	-10.9569
▁않는다	-10.9571
▁종목추천	-10.9571
▁전문업체	-10.9571
당한	-10.9572
▁첫강	-10.9574
uw	-10.9574
▁없어서	-10.9577
▁있을지	-10.9579
▁아무	-10.9579
▁gra	-10.958
▁않게	-10.958
▁드리는	-10.9581
▁입장에서	-10.9584
▁앞에	-10.9584
▁구독은	-10.9586
보건의료	-10.9587
됐고	-10.9588
▁메일로	-10.9589
hcn	-10.959
paypal	-10.959
▁샘플강의	-10.9591
▁기존의	-10.9594
동아리	-10.9595
우수	-10.96
▁조사를	-10.9604
▁다루는	-10.9606
시아	-10.9607
nie	-10.9609
▁가스기사	-10.9611
yq	-10.9614
▁퀴즈	-10.9614
▁운	-10.9615
▁시장에	-10.9616
▁손실	-10.9618
fw	-10.962
dan	-10.9621
▁전해드립니다	-10.9621
▁je	-10.9622
▁back	-10.9623
측량	-10.9627
▁되셨으면	-10.9628
=============	-10.9629
놓	-10.9631
공법	-10.9632
▁협약	-10.9633
사업단	-10.9633
▁응	-10.9634
che	-10.9636
▁슈	-10.9636
▁형식	-10.9636
▁cover	-10.9636
차례	-10.9639
▁받습니다	-10.964
▁team	-10.9642
린다	-10.9646
▁장단점	-10.9646
비교	-10.9647
▁세계를	-10.9647
▁재배포	-10.965
▁머	-10.965
▁소화	-10.965
포트	-10.965
rry	-10.9652
▁다르	-10.9652
▁읽고	-10.9654
밭	-10.9655
한국농업방송	-10.9655
▁탑	-10.9655
▁정확히	-10.9656
▁공포	-10.9657
▁process	-10.9658
▁culture	-10.9658
rx	-10.9659
▁week	-10.9661
▁포함되어	-10.9662
112	-10.9662
▁방송사	-10.9663
대출	-10.9663
우리는	-10.9664
밸리	-10.9665
안보	-10.9666
▁느	-10.9669
해주시고	-10.9669
qk	-10.9669
▁어디서	-10.967
있게	-10.9672
▁400	-10.9673
ight	-10.9674
▁안되는	-10.9675
mall	-10.9676
▁배송	-10.9679
qb	-10.9683
▁아버지	-10.9684
-1234	-10.9686
앞으로도	-10.9687
▁요인	-10.9688
▁구속	-10.969
에서만	-10.969
▁등은	-10.9694
▁상담을	-10.9695
down	-10.9695
▁when	-10.9696
▁치료를	-10.9696
기지	-10.9699
조차	-10.9699
한경	-10.97
▁sun	-10.9701
▁엄청난	-10.9705
▁선생님이	-10.9706
▁걸어	-10.9707
사무실	-10.9708
포트폴리오	-10.9708
▁지상	-10.9709
▁선택한	-10.9709
▁보셨다면	-10.9711
▁생중계	-10.9714
각종	-10.972
▁지시	-10.9722
▁문의주세요	-10.9722
▁다가	-10.9724
▁갖	-10.9726
▁올리고	-10.9728
amazon	-10.973
▁한의학	-10.9733
▁전수	-10.9736
▁테	-10.9737
▁방법과	-10.9737
롯데	-10.9738
했는지	-10.9742
▁아마	-10.9743
▁민주	-10.9745
iy	-10.9746
백만	-10.9746
▁현금	-10.9747
▁macleod	-10.9748
▁변신	-10.9749
▁professional	-10.9749
▁없음	-10.9751
zb	-10.9752
▁제작하였습니다	-10.9752
▁심장	-10.9753
데일리	-10.9754
우는	-10.9759
▁확인하고	-10.976
-------	-10.976
프레	-10.9761
읽기	-10.9762
대기업	-10.9763
재밌게	-10.9766
▁널리	-10.9767
wq	-10.9768
▁검	-10.9768
▁여러분께	-10.9771
▁park	-10.9771
hb	-10.9772
▁lecture	-10.9774
다산에듀	-10.9776
놈	-10.9776
▁강의영상	-10.9777
▁당장	-10.9777
사람들	-10.9777
코디	-10.9778
▁납	-10.9778
▁been	-10.9783
▁승인	-10.9786
▁기적	-10.9786
영양	-10.9787
준호	-10.9787
▁자신	-10.9788
▁지혜	-10.9788
jz	-10.9792
증상	-10.9793
딱	-10.9795
업종	-10.9796
▁청취	-10.9797
ure	-10.9799
좋아요와	-10.9799
▁수험	-10.9802
▁선사	-10.9802
▁셀프	-10.9803
이유	-10.9806
ql	-10.9806
▁다루	-10.9806
▁곳은	-10.9809
▁시장을	-10.981
xf	-10.981
kotra	-10.9812
nl	-10.9814
qd	-10.9814
▁인성	-10.9815
쓰기	-10.9817
프랑스어	-10.9818
▁맞추	-10.9822
교과	-10.9824
원을	-10.9824
▁경험이	-10.9825
선물	-10.9826
inter	-10.9826
단위	-10.9831
vz	-10.9834
상승	-10.9836
les	-10.9838
기상	-10.9841
▁신재생에너지	-10.9842
실에서	-10.9842
더라구요	-10.9842
▁빠	-10.9843
▁inter	-10.9845
당사	-10.9847
놓고	-10.985
▁앞에서	-10.9851
▁물어보	-10.9853
wf	-10.9855
▁끝에	-10.9861
(5	-10.9861
low	-10.9862
매니저	-10.9863
zm	-10.9864
드린	-10.9864
yl	-10.9865
▁이루	-10.9866
공공기관	-10.9868
▁기도	-10.9868
▁접목	-10.987
고기	-10.9873
about	-10.9874
▁사용하고	-10.9875
법칙	-10.9876
념	-10.9877
.03.	-10.9877
▁높여	-10.9879
jf	-10.988
화가	-10.9881
▁이민	-10.9881
▁적어	-10.9882
insta	-10.9884
▁이번에는	-10.9885
▁game	-10.9886
▁release	-10.9887
▁달아주세요	-10.989
▁고등	-10.989
room	-10.989
▁매일경제	-10.9891
dv	-10.9892
▁asmr	-10.9892
컵	-10.9893
맥스	-10.9893
▁신종	-10.9898
▁느낄	-10.9898
내고	-10.99
크루	-10.9901
저작권	-10.9901
▁경쟁력을	-10.9901
gam	-10.9901
하였	-10.9904
결정	-10.9907
▁한약	-10.9908
▁셀	-10.9908
2000	-10.9909
▁sc	-10.9909
분들의	-10.991
▁언어치료	-10.991
▁투어	-10.9911
▁약사	-10.9914
▁토익	-10.9914
선정	-10.9914
▁하나인	-10.9917
8585	-10.9918
투자연구소	-10.9918
▁서비스하는	-10.9919
면적	-10.9921
xu	-10.9922
▁예배	-10.9924
▁외교	-10.9925
▁소형	-10.9926
▁일환으로	-10.9927
xv	-10.9928
▁알려졌습니다	-10.9928
미니	-10.9928
제로	-10.9931
▁총장	-10.9932
둘	-10.9932
대통령	-10.9932
▁대사	-10.9933
▁행정사	-10.9935
법규	-10.9937
▁enjoy	-10.9937
▁fr	-10.9939
0102	-10.9939
▁단점	-10.9941
김성	-10.9941
▁고양이	-10.9942
▁lesson	-10.9943
보니	-10.9944
▁color	-10.9945
한문	-10.9949
▁다리	-10.995
mid	-10.995
▁부사관	-10.9951
거라	-10.9954
예고	-10.9956
▁얻어	-10.9956
▁leaders	-10.9959
금지	-10.996
▁시선	-10.9961
iu	-10.9961
▁어렵지	-10.9962
▁필요가	-10.9964
▁본다	-10.9965
달러	-10.9965
box	-10.9965
▁ki	-10.9966
급식	-10.9967
▁감동	-10.9967
연결	-10.997
도구	-10.997
임상	-10.9973
▁2000	-10.9973
주신	-10.9979
▁training	-10.998
하셨	-10.998
인터넷강의	-10.998
툴	-10.9981
끄	-10.9981
커플	-10.9982
▁강연자	-10.9984
▁확인됐습니다	-10.9985
▁조합	-10.9986
진짜	-10.999
▁육아	-10.999
▁사고가	-10.9991
vw	-10.9992
도장	-10.9995
▁곽	-10.9995
쾌	-10.9995
lb	-10.9997
▁기업을	-10.9998
신호	-10.9998
▁스토리텔링	-10.9999
▁정석	-11
▁생각해	-11
여름	-11.0001
▁경비	-11.0002
▁효과적인	-11.0002
▁팟캐스트	-11.0003
▁계획을	-11.0004
=0&	-11.0005
xg	-11.0006
5,000	-11.001
▁발언	-11.0011
▁공간을	-11.0012
시부터	-11.0012
디자인학과	-11.0012
▁조심	-11.0012
▁학위취득	-11.0013
▁효율적으로	-11.0013
/0	-11.0015
ism	-11.0016
▁잡는	-11.002
▁될까	-11.0021
▁under	-11.0026
을까요	-11.0026
▁국가대표	-11.0027
wd	-11.0028
실버	-11.0028
공감	-11.0032
▁li	-11.0037
tree	-11.0041
궁금하신	-11.0041
▁청소	-11.0043
pan	-11.0043
량이	-11.0044
▁she	-11.0044
▁조종	-11.0046
▁기자회견	-11.0049
▁(3	-11.005
▁외에도	-11.0051
youngjin	-11.0052
혁명	-11.0053
▁30%	-11.0055
contents	-11.0055
▁이해가	-11.0056
▁쌍	-11.0057
xm	-11.0057
▁임대	-11.0059
럼	-11.006
검찰	-11.0061
▁레이저	-11.0062
▁사료	-11.0063
분만에	-11.0064
틱	-11.0065
▁마음이	-11.0067
▁adobe	-11.0067
===	-11.007
보도록	-11.0072
▁쉬	-11.0073
▁박성	-11.0074
▁재개	-11.0074
▁추세	-11.0076
▁마치	-11.0077
=1#	-11.0077
▁퇴사	-11.0078
김현	-11.0079
qe	-11.0079
박한	-11.0081
우스	-11.0081
▁포스코	-11.0081
asmr	-11.0083
▁hope	-11.0083
▁즐기	-11.0084
▁light	-11.0085
▁협찬	-11.0085
우드	-11.0087
???	-11.0088
▁쏟아	-11.0089
세를	-11.0089
▁졸업작품	-11.0092
모델링	-11.0094
▁결론	-11.0097
▁찾고	-11.0098
펀	-11.0099
▁10-139510	-11.01
▁노원재수	-11.01
▁더블에듀학원	-11.01
▁즉시	-11.01
▁program	-11.01
▁43	-11.0103
▁움직이는	-11.0105
악기	-11.0105
위치	-11.0105
jae	-11.0105
롬	-11.0106
▁학사	-11.0108
iw	-11.0109
▁알람	-11.0111
때문에	-11.0116
자들	-11.0117
▁좋	-11.012
▁보시죠	-11.0122
포스트	-11.0123
▁올림픽	-11.0124
▁cho	-11.0125
▁(2021	-11.0126
▁중등	-11.013
▁경상북도	-11.0131
▁구경	-11.0133
iii	-11.0134
기술을	-11.0134
can	-11.0136
▁시간에는	-11.0137
▁재판	-11.0138
▁레스토랑	-11.0139
기의	-11.014
최초	-11.0144
▁재산	-11.0146
합격률	-11.0147
▁share	-11.0148
에듀마켓	-11.0151
▁휘	-11.0153
▁연말	-11.0153
▁어린	-11.0154
?'	-11.0156
이라며	-11.0156
해지고	-11.0157
포마중학수학	-11.0158
▁배우시고	-11.0159
▁대표의	-11.0159
ite	-11.016
▁선임	-11.016
tae	-11.0161
▁아이디	-11.0162
▁홈페이지를	-11.0163
▁02-78	-11.0163
▁쿠	-11.0165
▁원리를	-11.0166
▁효율	-11.0168
xh	-11.0173
8&	-11.0173
hv	-11.0173
▁지점	-11.0176
▁수능수학	-11.0178
차트	-11.018
비아	-11.0182
책임	-11.0184
▁라이	-11.0185
qg	-11.0186
▁이영	-11.0186
▁최상의	-11.0189
uq	-11.0189
cv	-11.0192
▁ci	-11.0192
ktv	-11.0193
▁수용	-11.0194
▁때마다	-11.0194
산화	-11.0195
줘	-11.0196
jobconslt	-11.0197
▁저서	-11.0198
신경	-11.02
ih	-11.0201
bra	-11.0202
▁이게	-11.0203
▁옮겨	-11.0207
▁예수	-11.0207
롭	-11.0207
▁건립	-11.0208
▁커리어	-11.0212
ade	-11.0212
현직	-11.0213
활동을	-11.0214
▁이용해서	-11.0215
▁들려	-11.0217
zl	-11.0218
edit	-11.0219
town	-11.022
가락	-11.022
베르	-11.0221
옵니다	-11.0225
▁무릎	-11.0225
▁생긴	-11.0228
[2	-11.0228
▁쪽	-11.023
멘	-11.023
패키지	-11.0232
og	-11.0232
ever	-11.0232
임용고시	-11.0235
티브	-11.0236
▁리서치	-11.0238
▁아들	-11.0239
▁직업상담사	-11.024
▁사람들은	-11.024
friend	-11.024
클래식	-11.0242
▁basic	-11.0244
▁수상작	-11.0244
▁장난감	-11.0244
식당	-11.0244
▁ja	-11.0244
목사	-11.0246
▁되었다	-11.0247
▁블랙	-11.0247
▁시술	-11.025
▁역사와	-11.025
▁이중	-11.0252
▁행사를	-11.0255
▁연예인	-11.0256
미디	-11.0258
냉	-11.0259
▁풍경	-11.026
▁최소화	-11.0261
▁유행	-11.0262
▁뉴스가	-11.0264
051	-11.0266
▁using	-11.0266
zg	-11.0268
드려요	-11.027
▁그러	-11.0271
▁dream	-11.0272
▁가스산업기사	-11.0272
▁반려견	-11.0273
▁느낀	-11.0275
▁120	-11.0276
해보고	-11.0276
▁유해	-11.0277
▁태양	-11.0278
피해	-11.0281
cx	-11.0281
_2016	-11.0283
▁게시판	-11.0287
뱅크	-11.0287
▁online	-11.0287
▁죽음	-11.0287
▁공군	-11.0288
▁의견이	-11.0288
순서	-11.0289
late	-11.0291
▁일상생활	-11.0295
▁사랑입니다	-11.0295
xq	-11.0296
pv	-11.0297
▁집행	-11.0297
▁경로	-11.0299
vu	-11.03
답변	-11.0302
community	-11.0303
▁수록	-11.0303
▁워크숍	-11.0306
동광고홍보마케팅	-11.0307
nq	-11.0307
릭	-11.0308
코치	-11.031
곽	-11.0312
ww	-11.0314
레이션	-11.0314
1234@	-11.0315
jt	-11.0316
지면	-11.0319
▁늘고	-11.032
▁것들이	-11.0321
강의는	-11.0321
bz	-11.0322
크리에이터	-11.0323
▁교육컨텐츠를	-11.0325
칙	-11.0325
▁풀버전	-11.0325
▁여러분들이	-11.0326
▁세상에	-11.0329
vv	-11.033
▁만한	-11.0331
▁맨	-11.0331
▁기술과	-11.0335
▁수련	-11.0336
▁나갈	-11.0337
▁통화	-11.0337
▁스킬	-11.0337
▁하여	-11.0339
▁활동하고	-11.0341
▁약간	-11.0342
▁부실	-11.0345
▁댓글에	-11.0346
투네이션	-11.0346
ley	-11.0347
에프	-11.0348
spot	-11.035
▁sony	-11.0353
화재	-11.0353
fun	-11.0353
겠다	-11.0354
▁주력	-11.0356
▁상위	-11.0356
고용	-11.0357
▁used	-11.0357
game	-11.0359
수준	-11.0361
개발원	-11.0361
▁level	-11.0363
크림	-11.0363
031	-11.0364
▁이들	-11.0365
vg	-11.0365
▁절감	-11.0366
▁책임을	-11.0367
▁공유합니다	-11.0367
▁sky	-11.0368
▁코너	-11.0371
chapter	-11.0375
yb	-11.0376
▁농장	-11.0377
▁성장을	-11.0377
누구나	-11.0378
▁비중	-11.0378
퓨	-11.0378
▁완전히	-11.0379
▁중소	-11.0382
▁습	-11.0384
▁소스	-11.0384
▁것들을	-11.0386
tom	-11.0386
교육과정	-11.0387
002	-11.0389
▁꾹	-11.0391
big	-11.0393
▁모바일기기에서	-11.0394
sb	-11.0394
행정학	-11.0395
td	-11.0396
080	-11.0398
재원	-11.0399
▁제정	-11.0402
▁거듭	-11.0402
이었던	-11.0405
▁격려	-11.0407
▁관하여	-11.0407
▁food	-11.0409
mq	-11.0411
▁intro	-11.0414
▁넘치는	-11.0415
▁뒤에	-11.0415
고시	-11.0417
▁세대	-11.0418
▁허락	-11.0418
▁시청해주세요	-11.042
record	-11.0422
fh	-11.0422
-20	-11.0425
▁여러분과	-11.0427
▁간호	-11.0429
해주시는	-11.0434
120	-11.0435
열차	-11.0436
▁관점에서	-11.0437
왔	-11.0437
▁어디까지	-11.0437
▁좋다	-11.0438
납니다	-11.044
▁켜	-11.0441
▁시각디자인	-11.0441
워드	-11.0442
생물학	-11.0443
웃	-11.0443
▁강의와	-11.0444
▁심각한	-11.0444
4&	-11.0451
▁way	-11.0455
체인	-11.0456
▁작가의	-11.0458
lar	-11.0459
▁자리를	-11.0461
▁there	-11.0462
▁있답니다	-11.0465
▁손해	-11.0465
숨	-11.0467
나이	-11.0468
▁많고	-11.0477
톡톡	-11.0478
할까요	-11.0478
교육센터	-11.0479
아직	-11.048
nic	-11.048
▁created	-11.0481
피아	-11.0481
원장님	-11.0482
영재	-11.0482
섹	-11.0483
▁얼	-11.0483
교대	-11.0484
sol	-11.0484
▁외식	-11.0486
vp	-11.0487
=4	-11.0488
▁올린	-11.0489
▁track	-11.0489
bang	-11.049
▁수중	-11.049
▁공동체	-11.049
▁국가직	-11.0491
워크	-11.0492
▁management	-11.0492
▁일반인	-11.0492
▁가능하다	-11.0492
▁비서	-11.0493
피플	-11.0493
megastudy	-11.0495
지혜	-11.0497
▁단기합격	-11.0497
▁메가스터디	-11.0498
이즈	-11.0498
▁사업에	-11.0498
▁대면	-11.0499
mun	-11.0503
▁고발	-11.0504
qr	-11.0504
연구회	-11.0504
▁영양사	-11.0506
▁사정	-11.0506
전북	-11.0509
▁시작하세요	-11.0509
▁참고하세요	-11.051
_3	-11.0512
▁치매	-11.0513
▁사람들에게	-11.0514
▁합격대비	-11.0514
륜	-11.0514
조각	-11.0518
▁공통	-11.0519
▁mtn	-11.0522
구청	-11.0522
주말	-11.0523
에게는	-11.0524
영상으로	-11.0525
less	-11.0529
▁al	-11.053
플래너	-11.0532
기념	-11.0534
bin	-11.0535
▁역량을	-11.0536
zh	-11.0536
▁동네	-11.0537
▁제보가	-11.0537
▁남은	-11.0537
▁골프	-11.0539
invest	-11.054
▁에너지관리기사	-11.054
잼	-11.0544
▁제품의	-11.0549
pri	-11.0549
애플	-11.0554
전력	-11.0557
▁키우는	-11.0557
천만원	-11.0558
▁보여주는	-11.0559
▁천안	-11.056
분들은	-11.0561
그리	-11.0564
rb	-11.0567
으로써	-11.0568
보육	-11.057
▁대선	-11.0576
제목	-11.0579
▁진정한	-11.058
▁밑	-11.058
매장	-11.0581
범죄	-11.0582
sbsnews	-11.0582
▁불과	-11.0584
하나요	-11.0585
dia	-11.0586
▁아빠	-11.0588
▁불이	-11.0589
▁해주시면	-11.059
▁단속	-11.0592
드리는	-11.0593
▁신기술	-11.0593
▁될까요	-11.0594
▁만점	-11.0595
▁급증	-11.0598
▁수십	-11.0599
분들께	-11.0601
broad	-11.0604
▁lab	-11.0604
▁자문	-11.0605
벅	-11.0606
▁상용화	-11.0606
rz	-11.0608
웨어	-11.0608
특집	-11.061
셨나요	-11.0617
▁총괄	-11.0617
찍	-11.0618
▁흥	-11.0619
soft	-11.062
display	-11.0621
▁나도	-11.0621
▁확인하기	-11.0621
펫	-11.0621
▁김기	-11.0625
냈습니다	-11.0627
mit	-11.0632
비서	-11.0636
▁관리사	-11.0638
▁대량	-11.0639
▁이상이	-11.0645
쌀	-11.0645
음성변조	-11.0646
먼저	-11.0649
재무	-11.0652
▁협상	-11.0655
자동	-11.0656
분야에서	-11.0656
▁독자	-11.0657
▁변화와	-11.066
▁일산	-11.0661
▁90%	-11.0662
▁구매하기	-11.0663
산업기술	-11.0663
==========	-11.0667
▁유아교육	-11.0667
▁번에	-11.0668
현실	-11.0671
▁우리에게	-11.0672
▁주기	-11.0674
투자증권	-11.0675
간의	-11.0675
▁(2020	-11.0681
국내최초	-11.0682
▁맹	-11.0685
오프라인	-11.0686
nw	-11.0686
~#	-11.0688
produce	-11.0688
▁김대	-11.0688
▁이행	-11.0689
문항	-11.0692
▁대가	-11.0692
종로	-11.0697
▁내용의	-11.0698
이노베이션	-11.0698
▁개혁	-11.0698
▁분들도	-11.0699
▁자격을	-11.07
▁즐기는	-11.0702
▁hi	-11.0703
보시고	-11.0704
tri	-11.0705
▁국토교통부	-11.0706
tan	-11.0706
▁당일	-11.0708
▁생겨	-11.071
▁예쁜	-11.0712
비법	-11.0712
▁되세요	-11.0713
▁special	-11.0713
경비	-11.0715
▁형	-11.0715
보겠습니다	-11.0718
디글	-11.0719
▁낸	-11.0719
tq	-11.0721
ness	-11.0721
god	-11.0722
▁청구	-11.0722
vx	-11.0729
▁교수는	-11.0731
▁소개하고	-11.0731
▁일하고	-11.0731
국방	-11.0732
moon	-11.0732
공인모	-11.0732
되었으며	-11.0733
▁환경부	-11.0734
▁수주	-11.0737
스테	-11.0739
▁이름을	-11.0741
▁배운	-11.0743
▁익	-11.0744
▁까	-11.0745
기업의	-11.0747
▁에스	-11.0749
▁상식	-11.075
▁이거	-11.075
▁임시	-11.0751
벨트	-11.0753
심리상담사	-11.0754
저널	-11.0754
▁무엇일까	-11.0756
▁상생	-11.0756
▁이유를	-11.076
▁일러스트	-11.0762
university	-11.0762
▁종료	-11.0765
▁간담회	-11.0766
,,,	-11.0766
▁봐야	-11.0766
도전	-11.0769
▁의도	-11.0769
▁전개	-11.077
자재	-11.0771
▁것과	-11.0772
▁닫	-11.0772
전도	-11.0775
▁안드로이드	-11.0776
▁전통의	-11.0777
rw	-11.0779
▁항만	-11.0779
▁02-398-	-11.078
▁빵	-11.078
야구	-11.0781
▁추정	-11.0783
국회	-11.0785
겨울	-11.0786
▁own	-11.0791
▁소독	-11.0792
▁저렴한	-11.0792
▁목록	-11.0793
▁42	-11.0793
▁지키는	-11.0793
▁테슬라	-11.0794
▁패스랩	-11.0794
▁국가고시	-11.0799
▁적이	-11.08
green	-11.08
sin	-11.0801
블루	-11.0801
▁조금씩	-11.0803
라며	-11.0804
▁개인의	-11.0804
받을	-11.0805
choi	-11.0806
▁사이에	-11.0806
▁beginners	-11.0807
▁가능성을	-11.0809
▁2006	-11.0809
▁폭행	-11.081
▁41	-11.0811
▁지문	-11.0811
▁시간은	-11.0812
축산	-11.0814
▁흐름을	-11.0815
형태	-11.0816
▁38	-11.0816
직장인브이로그	-11.0817
channels	-11.0817
수요	-11.0818
▁표기	-11.0818
▁진주	-11.0819
중급	-11.082
튼	-11.082
▁처벌	-11.0821
▁설문	-11.0821
7@	-11.0823
▁자랑	-11.0824
해운	-11.0824
대화	-11.0825
language	-11.0827
매출	-11.0827
샷	-11.0827
▁나에게	-11.0829
▁장중	-11.0829
kv	-11.0832
hun	-11.0835
▁케	-11.0836
4-	-11.0838
만명	-11.0838
wj	-11.084
취득	-11.0841
년에는	-11.0841
분양	-11.0841
여기	-11.0842
베트남	-11.0842
qo	-11.0844
▁다큐	-11.0844
▁장비를	-11.0846
▁발전에	-11.0846
▁더불어민주당	-11.0847
▁저작권법	-11.0853
▁just	-11.0853
▁식사	-11.0854
▁실태	-11.0854
▁자가	-11.0858
▁누적	-11.086
▁mon	-11.086
▁염색	-11.0862
▁디자인을	-11.0863
나눔의집	-11.0863
wb	-11.0864
▁전문성	-11.0864
▁건축물	-11.0865
세법	-11.0865
▁국산	-11.0866
▁상징	-11.0869
오후	-11.0869
뼈	-11.087
관심	-11.087
으나	-11.0872
▁알아봅시다	-11.0874
▁움직임	-11.0876
▁ph	-11.0877
▁37	-11.0879
▁tel	-11.088
에듀윌	-11.0881
▁mar	-11.0882
턱	-11.0882
▁수급	-11.0883
▁사용해	-11.0883
▁게시	-11.0884
▁전반에	-11.0884
▁천재	-11.0884
▁교육기관	-11.0889
050	-11.089
▁발제	-11.0891
▁선생	-11.0891
oy	-11.0891
▁스토어	-11.0892
머신	-11.0893
간다	-11.0894
▁문의전화	-11.0894
▁금합니다	-11.0895
▁모니터링	-11.0896
▁이와	-11.0897
▁follow	-11.0898
▁피해가	-11.0902
▁모듈	-11.0902
▁pe	-11.0904
bwbkg	-11.0905
1-2	-11.0906
씨는	-11.0906
▁의문	-11.0907
▁강독	-11.0907
운송	-11.0908
종이	-11.0913
fer	-11.0914
스마트폰	-11.0914
에서부터	-11.0915
▁부상	-11.0916
▁정보처리기사	-11.0916
▁업그레이드	-11.0917
▁빚	-11.0919
▁check	-11.092
▁좌	-11.0921
▁담고	-11.0924
▁원래	-11.0925
▁최적의	-11.0925
칩	-11.0925
▁현황과	-11.0927
ving	-11.093
트럭	-11.093
분이	-11.0931
▁review	-11.0935
강아지	-11.0937
▁준비해	-11.0937
계좌	-11.0942
▁도심	-11.0945
▁퇴직	-11.0945
police	-11.0946
ical	-11.0946
기획자	-11.0949
▁김선	-11.0952
▁가축	-11.0954
▁[1	-11.0954
재정	-11.0955
도예	-11.0957
더라고요	-11.0958
플라	-11.0958
▁멘토	-11.0961
교육부	-11.0962
▁기술은	-11.0964
▁중계	-11.0965
market	-11.0966
oz	-11.0967
cle	-11.0967
wx	-11.0968
량을	-11.0969
사업을	-11.0971
▁싸	-11.0971
▁기업들이	-11.0971
테마	-11.0973
230	-11.098
쟁이	-11.098
▁전담	-11.0981
▁미국에서	-11.0986
봐야	-11.0988
qm	-11.0988
시까지	-11.0988
▁fe	-11.0988
▁확	-11.0989
▁간의	-11.099
mos	-11.0992
▁김수	-11.0992
해드리고	-11.0994
▁기반의	-11.0994
구미	-11.0995
보컬	-11.0996
~8	-11.0996
060	-11.0998
해보았습니다	-11.0999
▁편곡	-11.1001
▁알려진	-11.1002
▁충돌	-11.1003
▁신청하기	-11.1003
▁every	-11.1006
곰	-11.1011
요령	-11.1012
▁엑셀	-11.1014
▁프로그램은	-11.1015
▁유엔	-11.1016
=10	-11.1018
르고	-11.1018
▁준수	-11.1018
▁필요로	-11.102
▁것인지	-11.102
▁여부를	-11.102
▁세계로	-11.102
펠	-11.1021
boy	-11.1022
▁봐주셔서	-11.1022
선거	-11.1022
▁노동자	-11.1022
부사관	-11.1022
요가	-11.1024
▁education	-11.1025
kaist	-11.1027
ding	-11.1028
▁모습이	-11.1028
▁준비해야	-11.1028
▁학생이	-11.1033
▁닥터	-11.1033
▁발행	-11.1035
▁우리나라의	-11.1037
gz	-11.1037
▁확진자가	-11.1038
▁임금	-11.1043
▁뭘	-11.1044
작은	-11.1045
jl	-11.1046
▁experience	-11.1046
▁다이아몬드	-11.1049
지연	-11.1049
▁칠	-11.1049
▁손상	-11.1049
매수	-11.105
부는	-11.105
규제	-11.1053
▁유기화학	-11.1053
oj	-11.1054
lan	-11.1054
저서	-11.1056
▁em	-11.1058
이드	-11.1059
▁죄송합니다	-11.1059
외국인	-11.106
통상	-11.1064
▁철저히	-11.1064
▁멋	-11.1064
▁교통사고	-11.1064
hf	-11.1065
쌍	-11.1066
=0010	-11.1066
▁관해	-11.1067
렌즈	-11.1071
▁심각	-11.1073
▁개막	-11.1074
예산	-11.1077
****************	-11.1079
▁고교	-11.1081
▁질의	-11.1085
대생	-11.1086
업자	-11.1086
▁잡고	-11.1093
소스	-11.1094
▁돌려	-11.1094
▁학생들을	-11.1094
zc	-11.1097
취준생	-11.1098
토마토	-11.1099
ios	-11.1102
104	-11.1102
bio	-11.1105
ars	-11.1107
▁정성	-11.1109
▁병행	-11.1112
▁기초부터	-11.1113
ate	-11.1115
백여	-11.1119
mat	-11.1122
▁버튼을	-11.1123
김종	-11.1125
▁may	-11.1126
공동체	-11.1128
▁지구과학	-11.1129
▁blue	-11.113
법령	-11.113
▁먹거리	-11.113
대기	-11.113
▁ne	-11.1131
▁생기는	-11.1131
▁trans	-11.1133
집중	-11.1134
▁촬영한	-11.1137
02-	-11.1138
hol	-11.1141
▁살펴보고	-11.1142
▁처방	-11.1143
쏘	-11.1143
팀이	-11.1145
601	-11.1146
group	-11.1147
▁자극	-11.1148
델	-11.1149
▁차트	-11.1149
다보니	-11.1149
nanum	-11.1151
자본	-11.1151
▁늦	-11.1154
▁series	-11.1155
밝	-11.1156
qua	-11.1156
▁개인정보	-11.1156
코디네이터	-11.1158
▁맺고	-11.1158
시트	-11.116
▁engineering	-11.1162
▁시작했습니다	-11.1162
▁폐쇄	-11.1163
포스	-11.1167
▁마이크	-11.1168
▁수치	-11.1169
▁엠	-11.1174
고전	-11.1174
▁형태의	-11.1175
▁공법	-11.1176
▁안녕하십니까	-11.1177
px	-11.1178
▁큐	-11.1178
▁물을	-11.1179
원전	-11.118
▁가방	-11.1181
▁참석한	-11.1181
▁활용하는	-11.1181
▁비지니스	-11.1183
▁상대로	-11.1184
코트	-11.1185
▁간다	-11.1185
▁전문가를	-11.1185
꿀	-11.1186
운항	-11.1186
zk	-11.1187
▁효	-11.1189
und	-11.1189
전기차	-11.119
대성	-11.119
▁내용에	-11.1191
▁함께라면	-11.1192
▁아직도	-11.1193
▁용역	-11.1193
예요	-11.1194
댄스학원	-11.1199
공인중개사시험	-11.12
▁불어	-11.1201
비가	-11.1202
담당	-11.1202
▁자본	-11.1202
▁견	-11.1203
▁가면	-11.1204
▁근대	-11.1205
▁find	-11.1206
님을	-11.1207
▁운동을	-11.1208
▁여러분이	-11.1212
▁마인드	-11.1213
이번에	-11.1215
▁위해선	-11.1217
▁채널에서	-11.1218
기금	-11.1218
▁고유	-11.1218
의료원	-11.1219
ard	-11.1219
▁협조	-11.1219
토론회	-11.1219
▁핸드폰	-11.1221
정기	-11.1223
중앙회	-11.1223
▁생활을	-11.1224
▁낼	-11.1224
uj	-11.1224
▁트위치	-11.1224
▁설명하고	-11.1227
▁멀티	-11.1228
위해	-11.1228
유산	-11.1229
넘	-11.1229
fin	-11.123
▁;	-11.123
cur	-11.123
▁이웃	-11.1236
▁덜	-11.1236
견적	-11.1237
tag	-11.1238
▁쿠폰	-11.1241
▁세월호	-11.1242
▁대표가	-11.1242
▁바이든	-11.1243
해드리겠습니다	-11.1243
강화	-11.1244
력과	-11.1247
대원	-11.125
▁품목	-11.125
대리	-11.125
시죠	-11.1251
▁접촉	-11.1252
▁못해	-11.1257
장으로	-11.1259
▁김해	-11.126
해보자	-11.126
년이	-11.126
▁기획자	-11.1261
과학고등학교	-11.1264
관절	-11.1265
▁정지	-11.1266
▁아기	-11.1268
추진	-11.1269
▁컨셉	-11.1269
월까지	-11.1275
폐기물	-11.1278
▁개의	-11.1278
치를	-11.1279
▁어떨까요	-11.1281
▁보이고	-11.1283
본부장	-11.1283
목적	-11.1284
▁벤	-11.1285
▁장르	-11.1287
▁multi	-11.1287
▁상무	-11.1287
지대	-11.1289
▁공유하는	-11.1289
과학과	-11.129
종합사회복지관	-11.129
▁아마존	-11.129
조형	-11.1291
학생들	-11.1291
대입	-11.1292
▁나누고	-11.1302
뉴스투데이	-11.1302
비즈	-11.1303
▁손을	-11.1304
드러	-11.1306
전용	-11.1307
관리자	-11.1309
ces	-11.1309
▁중고	-11.1311
▁챙겨	-11.1312
_#001	-11.1312
검정	-11.1312
▁문항	-11.1312
▁문제로	-11.1313
▁회사의	-11.1313
▁교실	-11.1314
▁카페에서	-11.1319
▁어깨	-11.132
▁지키	-11.132
▁뉴스룸	-11.1321
증후군	-11.1323
▁베스트셀러	-11.1323
▁곤충	-11.1324
▁네일	-11.1326
▁센터장	-11.1327
▁정재	-11.1328
hoy	-11.1329
▁과정입니다	-11.1329
▁강제	-11.1329
안동	-11.1331
▁미국주식	-11.1332
▁눌러주시면	-11.1334
▁은퇴	-11.1336
▁전산	-11.1338
경쟁	-11.1338
▁문화유산	-11.134
▁황금	-11.134
▁반발	-11.1341
▁업체가	-11.1342
ucampus	-11.1342
▁알려주	-11.1343
sjcu	-11.1345
▁다뤄	-11.1345
수목원	-11.1347
되어야	-11.1348
▁적합한	-11.1349
장교	-11.1354
sha	-11.1354
▁탐색	-11.1354
▁특수교육	-11.1355
셈	-11.1355
지현	-11.1357
▁롤	-11.1357
▁kids	-11.1357
▁소상공인	-11.1358
jun	-11.1358
bv	-11.1359
일지	-11.136
more	-11.136
차산업	-11.1361
neg	-11.1363
▁차별	-11.1364
▁단백질	-11.1365
▁최적화	-11.1367
▁문명	-11.1369
▁취업에	-11.137
▁이달	-11.1372
운전면허	-11.1374
▁전략을	-11.1374
270	-11.1376
▁증명	-11.1376
▁여기서	-11.1376
▁동반	-11.1376
▁읽어보세요	-11.1378
yz	-11.138
▁장식	-11.1383
▁간단	-11.1383
▁차질	-11.1384
▁추적	-11.1385
▁능	-11.1387
나고	-11.1387
효율	-11.1388
▁신용	-11.1389
▁사물인터넷	-11.1391
오프	-11.1391
▁대외	-11.1396
▁입장을	-11.1397
(4)	-11.1397
▁십	-11.14
▁look	-11.1401
▁농사	-11.1402
크로	-11.1403
▁변화가	-11.1403
▁우려가	-11.1403
▁관련하여	-11.1403
▁line	-11.1404
됐다고	-11.1407
▁친절한	-11.1407
▁보유하고	-11.1409
민주	-11.141
▁자격연수	-11.1411
▁돌파	-11.1413
▁부천	-11.1414
▁다니	-11.1415
031-	-11.1416
▁영어로	-11.1418
창조	-11.1419
vl	-11.1419
~20	-11.1421
▁복잡한	-11.1423
속에	-11.1424
▁소개한다	-11.1424
dasan	-11.1424
부대	-11.1424
떡	-11.1425
화물	-11.1425
▁침해	-11.1426
knn	-11.1427
▁판결	-11.1428
▁되기를	-11.1432
▁소송	-11.1435
넥	-11.1436
▁공부가	-11.1436
흑	-11.1436
▁관계를	-11.1437
편으로	-11.1438
육아	-11.1438
tip	-11.1439
▁단과	-11.1439
▁모의	-11.144
▁고민이	-11.1442
▁무엇인가요	-11.1443
▁한미	-11.1443
성안당	-11.1444
▁섭취	-11.1444
▁강좌는	-11.1445
사연	-11.1445
수험생	-11.1447
▁한마디	-11.1447
▁살아가는	-11.1448
▁경찰은	-11.145
▁음성을	-11.145
▁당뇨	-11.1452
줍니다	-11.1453
▁순천	-11.1453
▁현안	-11.1453
탈출	-11.1453
염색	-11.1454
▁모형	-11.1455
▁회원가입	-11.1455
화성	-11.1458
▁설치하고	-11.1458
▁취지	-11.1459
▁투자전략	-11.1459
협동조합	-11.1461
ott	-11.1463
▁자동차정비산업기사	-11.1465
▁group	-11.1465
▁앵커멘트	-11.1465
식이	-11.147
초급	-11.1473
받으	-11.1473
▁니	-11.1474
▁걸음	-11.1474
▁선언	-11.1474
시키기	-11.1483
▁글을	-11.1485
food	-11.1486
▁전자책	-11.1487
▁단지	-11.1488
▁박상	-11.1489
▁선생님과	-11.149
ground	-11.1491
발제	-11.1492
투데이	-11.1493
▁설명입니다	-11.1497
▁첫걸음	-11.15
row	-11.1501
▁그렇지	-11.1507
▁상처	-11.1508
하겠다	-11.1508
요양보호사	-11.1508
▁model	-11.1509
이름	-11.1511
▁시작이	-11.1511
녹	-11.1511
▁where	-11.1512
▁출산	-11.1513
▁참여한	-11.1515
하는지	-11.1515
▁긴장	-11.1519
/31	-11.1519
동작	-11.152
tro	-11.1522
▁꼽	-11.1522
하셔야	-11.1522
▁48	-11.1523
회관	-11.1523
렸습니다	-11.1524
▁띄	-11.1525
행복한	-11.1525
▁아이폰	-11.1532
바닥	-11.1532
▁학습하고	-11.1532
당사의	-11.1533
아웃	-11.1534
슈퍼	-11.1534
▁일어나는	-11.1536
van	-11.1539
▁에이	-11.154
인원	-11.154
▁않았다	-11.1543
happy	-11.1545
▁에어클래스	-11.1545
zf	-11.1545
▁재업로드	-11.1545
타이	-11.1546
수퍼	-11.1546
kita	-11.1546
pre	-11.1547
▁보겠습니다	-11.1548
▁watching	-11.155
▁실력을	-11.155
문재인	-11.155
▁유일한	-11.1552
▁알찬	-11.1553
▁결과에	-11.156
메이	-11.1562
▁한달	-11.1563
▁무엇보다	-11.1563
wood	-11.1568
총회	-11.157
▁청춘	-11.1572
▁받게	-11.1575
위에	-11.1575
rv	-11.1575
원예	-11.1576
lz	-11.1576
써	-11.1576
wow	-11.1578
▁열었습니다	-11.1582
▁content	-11.1584
▁투표	-11.1585
▁급여	-11.1587
윤정	-11.1587
▁발표했습니다	-11.1587
▁ᄋ	-11.159
▁14:00	-11.1592
▁채용정보	-11.1593
▁외에	-11.1593
write	-11.1595
▁성질	-11.1595
유료	-11.1596
음료	-11.1597
▁직강	-11.1598
qz	-11.1598
▁진행했습니다	-11.1599
▁현직자	-11.1599
▁공업	-11.16
▁ju	-11.1602
▁찾아가는	-11.1605
▁없었다	-11.1606
발레	-11.1607
▁봐주시고	-11.1612
애니	-11.1612
▁떨어진	-11.1613
▁차지	-11.1613
해봅니다	-11.1613
현장에서	-11.1614
▁주식회사	-11.1615
_2017	-11.1615
cq	-11.1618
gar	-11.1621
▁갑니다	-11.1621
잎	-11.1621
레크레이션	-11.1621
▁분당	-11.1622
▁혈	-11.1622
데스크	-11.1623
▁골라	-11.1623
안전관리	-11.1624
▁조용	-11.1624
▁설명하는	-11.1625
yf	-11.1625
▁os	-11.1625
▁전해	-11.1625
만이	-11.1625
괴	-11.1629
▁넣고	-11.1631
▁막기	-11.1633
double	-11.1634
website	-11.1634
▁일과	-11.1636
▁코치	-11.1638
▁투자의	-11.1639
▁유전	-11.1639
십시오	-11.1641
▁자료와	-11.1641
die	-11.1642
▁교육과	-11.1643
▁내리	-11.1644
스피치	-11.1645
하이닉스	-11.1646
▁episode	-11.1647
▁에듀	-11.1647
조립	-11.1647
▁미용사	-11.1647
▁계열	-11.1647
▁본격적으로	-11.1648
▁랜선	-11.1653
▁개척	-11.1654
▁많다	-11.1654
▁비결	-11.1656
듯이	-11.1656
▁당사	-11.1657
▁dna	-11.1657
▁뛰어난	-11.1657
태양광	-11.1658
▁단원	-11.1659
▁매도	-11.1659
▁특성을	-11.166
▁star	-11.166
있어	-11.1663
정규	-11.1663
▁괴	-11.1664
창의	-11.1664
▁춘천	-11.1665
함에	-11.1665
▁개정안	-11.1666
아빠	-11.1666
airklass	-11.1668
렁	-11.1668
등의	-11.1669
부부	-11.167
xp	-11.167
중국어회화	-11.1671
▁말씀을	-11.1673
-02	-11.1674
▁한화	-11.1675
▁시장에서	-11.1678
▁기술력	-11.1678
▁들어간	-11.1679
▁00:00	-11.1683
▁순환	-11.1685
yr	-11.1686
▁품질관리	-11.1688
▁변화에	-11.1689
▁전투	-11.169
▁매입	-11.1691
▁양자	-11.1691
▁합격한	-11.1691
일기	-11.1699
뱅	-11.1699
▁아니면	-11.1699
▁mou	-11.17
스윙	-11.17
oq	-11.17
▁institute	-11.1701
▁엄격히	-11.1702
ous	-11.1702
ial	-11.1702
▁증진	-11.1704
▁강도	-11.1705
정책과	-11.1707
경찰서	-11.1708
혹시	-11.1711
군의	-11.1711
▁이르기까지	-11.1713
▁dm	-11.1716
해질	-11.1717
▁전격	-11.1717
엑스	-11.172
의류	-11.1721
작업형	-11.1721
▁46	-11.1722
었는데요	-11.1724
▁국가기술자격증	-11.1724
해주시기	-11.1724
▁휴대폰	-11.1725
페이	-11.1725
으면서	-11.1727
로우	-11.1729
▁발레	-11.1732
▁의식	-11.1733
▁오해	-11.1733
▁촉진	-11.1735
▁때까지	-11.1736
0104	-11.1736
▁평생교육원	-11.1737
오염	-11.1737
▁파견	-11.1737
▁한복	-11.1739
관을	-11.1741
▁feat	-11.1741
▁하다	-11.1742
정현	-11.1742
총정리	-11.1742
tes	-11.1745
rj	-11.1745
▁진행중	-11.1745
셔도	-11.1747
▁트레이닝	-11.175
럽	-11.175
인벤터	-11.175
급여	-11.1755
맹	-11.1756
문화원	-11.1756
004	-11.1757
습관	-11.1758
코어	-11.176
▁달인	-11.1766
▁맛집	-11.1767
▁패밀리	-11.1767
▁주의사항	-11.1769
모드	-11.177
않	-11.1772
▁끌어	-11.1772
▁자기소개	-11.1772
▁화가	-11.1772
▁cg	-11.1774
sea	-11.1775
▁되나요	-11.1777
▁연구기관	-11.1782
화와	-11.1784
하다가	-11.1784
반려동물	-11.1786
skin	-11.1791
▁#4	-11.1792
감이	-11.1793
▁에코	-11.1793
▁가로	-11.1793
▁master	-11.1794
▁성공한	-11.1795
▁해운	-11.1795
깔	-11.1796
▁글자	-11.1797
▁these	-11.18
▁촉구	-11.1801
▁판정을	-11.1805
▁활성화를	-11.1805
kz	-11.1806
▁시인	-11.1808
▁본격적인	-11.1809
▁future	-11.1814
▁지휘	-11.1814
▁프로그램으로	-11.1815
인강추천	-11.1816
정희	-11.1817
▁사내	-11.1817
▁펜	-11.1817
▁비하인드	-11.1818
▁경향	-11.1818
번지	-11.1819
ust	-11.182
▁덕	-11.1821
▁사람들을	-11.1823
▁자세하게	-11.1823
▁대북	-11.1825
공시	-11.1825
미술학원	-11.1825
▁느끼	-11.1826
▁김병	-11.1828
▁email	-11.1829
▁할수	-11.1829
▁02-6	-11.1829
▁비타민	-11.1829
내역	-11.1832
연락처	-11.1834
▁2)	-11.1834
수당	-11.1835
▁가능하며	-11.1837
▁기체	-11.1837
튜	-11.1837
▁투기	-11.1838
▁동참	-11.1843
▁돌아온	-11.1843
camp	-11.1844
▁찾을	-11.1844
문제집	-11.1845
▁보컬	-11.1845
도와	-11.1846
성호	-11.1846
nv	-11.1848
곱	-11.1849
개요	-11.1849
됐던	-11.1849
▁전했습니다	-11.1849
육성	-11.1852
▁ost	-11.1852
▁맛있는	-11.1853
0&	-11.1854
▁다를	-11.1858
이든	-11.1859
펌프	-11.1859
음성	-11.186
▁즐겨	-11.1861
189	-11.1861
wavve	-11.1862
지안에듀	-11.1862
▁탐사	-11.1862
정보관리사	-11.1863
맞춤	-11.1863
spec	-11.1864
sejong	-11.1864
▁편리하게	-11.1865
▁사랑을	-11.1869
_2015	-11.1872
▁빌	-11.1872
▁정규직	-11.1873
▁교원	-11.1874
▁국가자격증	-11.1875
▁다양하게	-11.1877
350	-11.1881
▁전액	-11.1883
김용	-11.1884
▁레시피	-11.1884
크라	-11.1885
▁인형	-11.1885
(2021	-11.1886
▁들여	-11.1887
^^#	-11.1887
▁궁금	-11.1888
▁파괴	-11.189
채널구독하기	-11.1891
재미있게	-11.1893
▁왔다	-11.1895
▁코레일	-11.1895
얀	-11.1897
아쿠아	-11.1897
▁비영리	-11.1897
드는	-11.1903
▁외국계	-11.1903
▁이용할	-11.1904
우성	-11.1904
▁39	-11.1904
▁포함해	-11.1905
▁작성법	-11.1907
▁추석	-11.1911
130	-11.1911
보상	-11.1911
털	-11.1914
▁목소리가	-11.1915
subscriber	-11.1917
▁히	-11.1917
qy	-11.192
년째	-11.1921
디스크	-11.1921
출산	-11.1923
▁녹색	-11.1923
구리	-11.1924
/39	-11.1926
▁ca	-11.1927
실내	-11.1932
▁프로젝트를	-11.1932
▁정착	-11.1933
▁맡	-11.1934
법과	-11.1934
▁잡지	-11.1936
아리	-11.1936
▁경험과	-11.1937
yx	-11.1937
부천	-11.1938
마이크	-11.1939
▁카페에	-11.1939
문을	-11.194
▁효능	-11.1943
kotera	-11.1943
현수	-11.1944
시간이	-11.1945
▁이성	-11.1946
탱	-11.1951
▁데이터베이스	-11.1951
지게	-11.1952
mobile	-11.1953
test	-11.1953
▁적은	-11.1954
▁어디에	-11.1955
qh	-11.1956
▁가게	-11.1956
정지	-11.1957
▁컴활	-11.1958
▁경우도	-11.1958
hwa	-11.1959
▁대장	-11.1959
▁방송에서	-11.1962
▁비온뒤	-11.1963
lj	-11.1963
▁무게	-11.1964
▁흡수	-11.1965
pen	-11.1966
▁상시	-11.1966
blue	-11.1967
중입니다	-11.1967
mes	-11.1967
▁야구	-11.1969
▁이건	-11.1972
▁건설안전기사	-11.1974
여개	-11.1974
장기	-11.1977
▁공방	-11.1978
ken	-11.1978
▁한계	-11.1979
samsung	-11.198
▁요령	-11.1981
시험을	-11.1981
▁드리고	-11.1983
주년을	-11.1983
pmg	-11.1984
▁유발	-11.1985
▁***	-11.1986
▁목차	-11.1987
▁tri	-11.1988
테이블	-11.1989
▁것이라는	-11.199
▁없었	-11.1991
fj	-11.1994
호흡	-11.1996
lang	-11.1997
▁st	-11.2001
▁무한	-11.2002
mf	-11.2002
▁가득한	-11.2003
연기학원	-11.2003
대중	-11.2005
광학	-11.2006
sci	-11.2006
replay	-11.2008
당국	-11.2008
▁지역에	-11.2009
상가	-11.2009
조금	-11.2011
▁분자	-11.2011
거에요	-11.2011
▁있으시다면	-11.2013
▁사서	-11.2014
도서출판	-11.2014
▁탄소	-11.2016
▁분쟁	-11.2016
ppt	-11.2017
ins	-11.2017
진영	-11.2018
최대	-11.2019
▁하나하나	-11.2024
▁mp	-11.2024
뻔	-11.2025
이번에는	-11.2025
▁위원	-11.2026
▁history	-11.2027
▁편의	-11.2027
다보면	-11.2028
▁필름	-11.2029
스페이스	-11.2029
mad	-11.203
▁소리를	-11.2034
▁논리	-11.2035
▁숨겨진	-11.2037
off	-11.2038
iot	-11.2039
sta	-11.2041
▁보이지	-11.2042
▁준비생	-11.2042
▁동일한	-11.2042
주연	-11.2043
민법	-11.2044
what	-11.2044
이신	-11.2047
▁이것만	-11.2048
▁동아	-11.2049
sdi	-11.205
생태	-11.205
시간에	-11.2051
▁배움	-11.2051
▁계속해서	-11.2052
로는	-11.2053
▁수색	-11.2054
▁db	-11.2055
교양	-11.2055
안을	-11.2057
남북	-11.2057
을때	-11.2057
섭외	-11.2058
▁돼지	-11.2058
간호학	-11.2058
전을	-11.2061
▁산업통상자원부	-11.2062
갓	-11.2062
청소	-11.2067
권의	-11.2068
▁단일	-11.2068
▁정책을	-11.2069
▁80%	-11.2069
▁뜻을	-11.2071
영주	-11.2072
xs	-11.2072
▁회전	-11.2072
프로덕션	-11.2072
▁계신가요	-11.2073
처방	-11.2073
▁민주당	-11.2073
가수	-11.2076
campus	-11.2076
▁압력	-11.2077
▁이익	-11.2077
경영학	-11.2078
▁전설	-11.2078
▁적분	-11.2078
마사지	-11.2081
/10	-11.2083
▁체력	-11.2083
▁국정원	-11.2085
▁소셜	-11.2086
business	-11.2086
우선	-11.2087
mind	-11.2088
▁받았다	-11.2088
▁땐	-11.2091
▁자체가	-11.2091
▁마이크로	-11.2093
▁올라가	-11.2094
이야	-11.2095
안경	-11.2096
▁했지만	-11.2096
▁검출	-11.2097
▁camera	-11.2098
▁이어서	-11.2098
▁공시	-11.2099
▁북한이	-11.2099
▁뼈	-11.21
graph	-11.21
음원	-11.2101
탄소	-11.2101
sim	-11.2102
ming	-11.2104
▁모르	-11.2104
피디	-11.2106
▁빠지	-11.2107
연구실	-11.2108
▁감리	-11.2109
▁600	-11.2111
▁need	-11.2112
첨단	-11.2114
▁텍스트	-11.2114
▁행사는	-11.2115
▁많아서	-11.2116
▁채권	-11.2116
▁공인	-11.2119
똑	-11.2119
평생교육원	-11.212
~6	-11.212
원자력	-11.2123
▁사회의	-11.2124
tal	-11.2124
gun	-11.2126
▁창의	-11.2127
▁구체적으로	-11.2129
▁무크랜드	-11.2129
▁시상식	-11.2129
▁메가랜드	-11.2132
▁강북	-11.2134
상권	-11.2134
의료기기	-11.2136
▁기다리	-11.2136
▁만든다	-11.2137
▁covid	-11.2138
▁동력	-11.2138
▁ve	-11.2139
▁됐	-11.2139
▁음악을	-11.214
▁프리랜서	-11.214
▁구간	-11.2141
▁수능특강	-11.2143
▁health	-11.2144
▁노선	-11.2144
▁가요	-11.2144
▁특징을	-11.2145
▁김정은	-11.2145
▁관계자는	-11.2146
▁하루를	-11.2147
sam	-11.2151
3-2	-11.2151
005	-11.2155
▁들어오	-11.2155
▁연관	-11.2155
스턴	-11.2156
▁복사	-11.2158
▁comment	-11.2159
▁동료	-11.2162
▁극대화	-11.2167
don	-11.2168
▁상당	-11.2169
명품	-11.217
▁툴	-11.217
▁의미가	-11.217
crew	-11.2171
앞서	-11.2171
배터리	-11.2172
▁유의	-11.2173
▁파일럿	-11.2173
가지를	-11.2174
성대	-11.2177
qn	-11.2183
▁다르게	-11.2184
▁내에	-11.2185
브로	-11.2185
▁오디션	-11.2186
▁와서	-11.2186
160	-11.2186
tur	-11.2187
이트	-11.2188
인들이	-11.2191
▁입지	-11.2192
passlab	-11.2192
▁확실한	-11.2194
gang	-11.2195
올림픽	-11.2195
▁새내기	-11.2198
자기소개서	-11.2199
▁강릉	-11.22
블랙	-11.22
년제	-11.22
moo	-11.2202
▁발표한	-11.2204
▁재즈	-11.2204
▁강력	-11.2204
연예	-11.2206
▁소요	-11.2207
엔지니어	-11.2208
▁싶	-11.221
▁실장	-11.2211
▁척	-11.2212
▁디자이너가	-11.2214
▁얻고	-11.2214
연수원	-11.2214
▁edit	-11.2219
▁세계의	-11.2222
▁카톡방	-11.2222
▁그것	-11.2222
복합	-11.2222
동아	-11.2223
됨	-11.2224
▁하나님	-11.2225
216	-11.2225
사료	-11.2225
▁차장	-11.2227
나가는	-11.2229
craft	-11.2232
센터장	-11.2232
▁태국	-11.2233
▁1-2	-11.2233
▁향상을	-11.2234
▁개성	-11.2234
할인	-11.2235
▁한방	-11.2235
재생	-11.2236
협찬	-11.2238
클리닉	-11.2239
들만	-11.2239
제휴	-11.2239
▁가다	-11.224
▁재능	-11.2242
▁야외	-11.2244
▁눈물	-11.2245
▁사업장	-11.2245
▁가사	-11.2246
토익	-11.2246
사장	-11.2246
츄	-11.225
▁맘	-11.2251
kai	-11.2251
140	-11.2253
wz	-11.2253
mode	-11.2254
▁이후에	-11.2255
토리	-11.2257
▁easy	-11.2257
project	-11.2258
단이	-11.226
이날	-11.226
▁이용하는	-11.2262
▁약물	-11.2262
▁동영상이	-11.2263
해상	-11.2265
▁용인	-11.2267
▁종류와	-11.2267
저의	-11.2269
소영	-11.2272
fv	-11.2273
▁발효	-11.2274
번출구	-11.2274
director	-11.2275
▁가시	-11.2277
▁홍콩	-11.2279
▁소소한	-11.2279
동양	-11.2279
실용	-11.2279
감정	-11.2281
aq	-11.2282
대사	-11.2282
▁태도	-11.2282
▁당신	-11.2283
▁취급	-11.2283
경주	-11.2284
▁심포지엄	-11.2284
파트	-11.2284
2009	-11.2285
)4.	-11.2285
평일	-11.2286
▁보험사	-11.2287
▁알아볼까요	-11.2287
미스	-11.2288
영상에서	-11.2289
▁crm	-11.229
▁전산회계	-11.229
건축기사	-11.2291
▁법령	-11.2291
▁분야별	-11.2292
사진학개론	-11.2298
유퀴즈온더블럭	-11.2298
사이클	-11.2299
버섯	-11.2299
▁them	-11.2301
매체	-11.2301
▁임용고시	-11.2303
심을	-11.2303
소송	-11.2303
기업분석	-11.2303
▁연구실	-11.2304
kpop	-11.2304
서점	-11.2305
▁정도의	-11.2305
▁지역에서	-11.2307
zd	-11.2307
▁lu	-11.2307
factory	-11.2308
sx	-11.2308
▁흙	-11.2309
유도	-11.2311
▁이뤄	-11.2311
약사	-11.2312
▁사람과	-11.2314
▁아이들의	-11.2316
부터는	-11.2317
▁보시는	-11.2318
▁학생들은	-11.2319
▁내는	-11.2319
intro	-11.232
수지	-11.2321
사이	-11.2321
▁관리를	-11.2322
▁watch	-11.2325
사기	-11.2325
▁성우	-11.2325
장님	-11.2326
졸	-11.233
▁홀	-11.2332
팟	-11.2333
▁지능	-11.2335
배포	-11.2338
▁좋지	-11.2341
학박사	-11.2341
▁신소재	-11.2342
▁초대합니다	-11.2343
헬스케어	-11.2343
스탁	-11.2345
side	-11.2345
붙	-11.2346
▁했	-11.2347
nr	-11.2348
커머스	-11.2349
▁기분	-11.2349
스코	-11.2351
09.	-11.2355
뇨	-11.2355
로스	-11.2361
것을	-11.2364
▁신제품	-11.2367
▁지수	-11.2367
▁일어나	-11.2368
그래도	-11.2371
분들에게	-11.2371
▁학원입니다	-11.2373
▁축사	-11.2374
공시생	-11.2375
대행사	-11.2375
▁auto	-11.2376
yun	-11.2379
▁자격시험	-11.238
▁뽑	-11.2381
비스	-11.2383
공무원시험	-11.2385
▁그때	-11.2385
▁명사	-11.2387
해외주식	-11.2388
kma	-11.2388
원문	-11.2389
가능합니다	-11.239
잡기	-11.2391
▁좀더	-11.2392
▁1~2	-11.2393
회독	-11.2393
▁대답	-11.2393
▁문장의	-11.2393
▁보내는	-11.2394
▁크리스	-11.2395
pot	-11.2395
▁파리	-11.2396
▁대표하는	-11.2398
▁기업에	-11.24
▁시설을	-11.2404
끔	-11.2404
▁기업은	-11.2406
혼자	-11.2406
/%	-11.241
▁인재를	-11.241
▁한우	-11.2411
하는법	-11.2412
daily	-11.2413
무선	-11.2414
▁스피커	-11.2415
lec	-11.2415
▁도장	-11.2416
▁과학적	-11.2416
온도	-11.2416
▁국비지원	-11.2417
▁나왔	-11.2418
▁일은	-11.2418
today	-11.2418
.7.	-11.2419
▁압수수색	-11.242
▁처분	-11.2421
support	-11.2421
▁대표강사	-11.2422
소방설비기사	-11.2422
물이	-11.2428
시행	-11.2429
▁고용노동부	-11.243
받	-11.2432
▁통역	-11.2432
▁설명할	-11.2433
▁cam	-11.2433
▁구강	-11.2434
▁운전자	-11.2435
충전	-11.2436
리지	-11.2436
대체	-11.2438
=%	-11.244
3000	-11.244
▁hand	-11.2441
▁섭외	-11.2443
▁학대	-11.2443
▁비리	-11.2445
의무	-11.2447
회를	-11.2452
창고	-11.2455
썸	-11.2457
▁유사	-11.2457
chris	-11.2457
산업진흥원	-11.2459
129	-11.2461
▁주인	-11.2461
▁하단	-11.2463
▁ib	-11.2463
/32	-11.2464
▁참여해	-11.2464
▁강좌입니다	-11.2464
▁let	-11.2464
해드리는	-11.2465
1-3	-11.2465
▁기대됩니다	-11.2465
▁톤	-11.2465
▁travel	-11.2465
▁다만	-11.2466
▁발표자	-11.2469
▁발휘	-11.247
▁느끼는	-11.2471
▁어머니	-11.2472
vb	-11.2473
▁조화	-11.2474
필기시험	-11.2474
▁필기이론	-11.2475
cid	-11.2475
yeon	-11.2477
한솔	-11.2478
가능한	-11.2479
▁내놓	-11.2479
▁뜨거운	-11.2481
▁벼	-11.2485
▁흔들	-11.2486
vision	-11.2487
count	-11.2488
▁제작하는	-11.249
▁척추	-11.2491
sec	-11.2492
▁기업과	-11.2492
러브	-11.2492
는법	-11.2492
ide	-11.2493
▁획득	-11.2493
▁이는	-11.2494
▁유니	-11.2494
neo	-11.2494
있으	-11.2495
▁정유	-11.2497
렸다	-11.2497
fashion	-11.2497
▁들으면서	-11.2498
수행	-11.2499
003	-11.2501
▁법무부	-11.2504
▁유료강의	-11.2504
▁국내에서	-11.2504
▁되실	-11.2504
▁경비지도사	-11.2504
▁선별	-11.2506
성분	-11.2506
오토	-11.2506
실력	-11.2508
▁박수	-11.2509
▁찾아서	-11.2511
▁전문가의	-11.2511
▁바라보는	-11.2511
▁cut	-11.2512
▁의사소통	-11.2513
부의	-11.2514
지점	-11.2516
분포	-11.2516
▁속도를	-11.2518
탐험	-11.2519
▁블루	-11.252
▁갖추고	-11.252
▁entertainment	-11.2521
보조	-11.2524
암기	-11.2526
봅시다	-11.2529
▁하자	-11.2529
바랍니다	-11.253
경희대	-11.2531
방송사	-11.2531
base	-11.2533
▁주방	-11.2535
엔터테인먼트	-11.2535
빗	-11.2536
crea	-11.2536
책을	-11.2538
상담사	-11.2539
관이	-11.2539
-11	-11.2541
▁리스트	-11.2543
인사이드	-11.2543
닉스	-11.2543
물의	-11.2543
▁분이	-11.2544
소를	-11.2547
조절	-11.2549
▁면역	-11.2549
▁medical	-11.2551
▁대공개	-11.2551
▁냉동	-11.2551
▁되는데	-11.2552
▁home	-11.2553
▁생체	-11.2555
요청	-11.2557
▁들어가는	-11.2558
▁무엇	-11.2558
▁갖는	-11.2559
▁set	-11.256
학술	-11.256
stream	-11.256
815	-11.256
▁today	-11.2561
-07	-11.2562
약품	-11.2562
▁guide	-11.2565
메이커	-11.2566
▁예정이다	-11.2566
▁갖추	-11.2567
노원	-11.2567
▁케어	-11.2568
깊	-11.2571
▁smart	-11.2572
▁돈이	-11.2572
▁극한	-11.2572
예금주	-11.2574
dms	-11.2575
ans	-11.2576
team	-11.2578
▁장교	-11.2581
▁:-)	-11.2582
시가	-11.2582
있고	-11.2585
▁기술자격증	-11.2585
수진	-11.2587
문학과	-11.2591
mini	-11.2592
▁살아있는	-11.2594
▁호소	-11.2596
▁혐의	-11.2597
ization	-11.2597
▁집에	-11.2598
▁지형	-11.2601
▁날개	-11.2601
▁계시	-11.2602
jay	-11.2603
2008	-11.2604
▁한해	-11.2604
▁준공	-11.2605
▁탄탄한	-11.2605
킬	-11.2606
▁성공적인	-11.2607
▁시작하기	-11.2608
bon	-11.261
▁47	-11.261
▁개원	-11.2611
▁세계에서	-11.2613
▁tr	-11.2616
▁소금	-11.2617
시황	-11.2617
분께	-11.2618
▁비전공자	-11.262
▁요트	-11.2621
교구	-11.2622
▁삶에	-11.2624
▁필요하다	-11.2625
▁실버	-11.2627
pub	-11.2627
공인중개사무료인강	-11.2627
▁사업이	-11.2629
▁의상	-11.2629
▁컬러리스트	-11.2631
시다	-11.2631
▁mu	-11.2632
▁말하다	-11.2632
듬	-11.2633
점수	-11.2633
▁다문화	-11.2634
▁근로	-11.2635
▁여유	-11.2635
▁봉사	-11.2637
셀프	-11.2637
원인	-11.2638
▁김포	-11.2639
▁지배	-11.264
금액	-11.264
▁답을	-11.2642
낚시	-11.2643
▁강화를	-11.2643
▁결과는	-11.2643
작문	-11.2643
▁멤버쉽	-11.2644
▁뭐가	-11.2645
느냐	-11.2646
▁통상	-11.2646
ker	-11.2646
▁경우는	-11.2647
▁경희대	-11.2648
▁예상됩니다	-11.2648
▁단축	-11.2649
컨텐츠	-11.265
ier	-11.265
전산회계	-11.2651
것은	-11.2653
▁해주는	-11.2657
주로	-11.2658
스탠	-11.266
▁비용을	-11.266
함과	-11.2661
▁한국에서	-11.2661
부서	-11.2662
모터	-11.2662
~2	-11.2662
▁압	-11.2663
워크북	-11.2664
클라우드	-11.2664
▁찬양	-11.2665
ᄒ	-11.2666
▁들어서	-11.2668
▁응급	-11.2668
kx	-11.2668
ssam	-11.2669
었고	-11.267
▁변환	-11.2671
▁게임을	-11.2671
times	-11.2672
▁묘	-11.2673
▁프리미어	-11.2673
평균	-11.2677
▁힘들어	-11.2679
pin	-11.2679
학적	-11.2681
▁방송은	-11.2681
▁next	-11.2681
▁연대	-11.2682
lic	-11.2682
ens	-11.2682
마지막	-11.2683
ang	-11.2684
넓	-11.2685
위의	-11.2686
여러분들	-11.2687
▁벗	-11.2687
▁공부하기	-11.2688
_2021	-11.2688
▁적절한	-11.2688
▁듣	-11.2689
▁인정받	-11.269
▁노무사	-11.2693
삼프로	-11.2695
아니	-11.2695
▁정책자금	-11.2696
▁환경에서	-11.2698
▁철강	-11.27
▁거치	-11.2701
▁폴	-11.2701
▁적정	-11.2702
분에	-11.2703
▁있다며	-11.2703
▁로켓	-11.2706
▁노력하는	-11.2706
길이	-11.2707
hsk	-11.2708
▁표면	-11.2708
연장	-11.2709
over	-11.271
장과	-11.2711
좋	-11.2711
▁유튜브를	-11.2711
zv	-11.2711
는다	-11.2714
▁마사지	-11.2715
하죠	-11.2716
무도	-11.2717
▁받아보실	-11.2717
▁역대	-11.2719
▁source	-11.2719
are	-11.2719
▁interview	-11.272
▁복지관	-11.272
thing	-11.2721
와인	-11.2721
▁커버	-11.2722
▁응답	-11.2725
▁받았	-11.2727
리더스	-11.2731
▁설립된	-11.2732
=7	-11.2734
▁업체는	-11.2734
▁석유	-11.2734
취재	-11.2734
▁이어지고	-11.2734
▁고득점	-11.2735
▁상업적	-11.2736
매도	-11.2736
▁갑	-11.2738
tvchosun	-11.2738
010-2	-11.2738
해주셔서	-11.274
▁제보하기	-11.274
핫	-11.2742
▁잇따라	-11.2742
쉐	-11.2743
▁안녕	-11.2743
▁증권사	-11.2744
민간	-11.2744
▁심층	-11.2744
ucc	-11.2745
learning	-11.2745
청사	-11.2747
성형	-11.2748
▁떠나는	-11.2748
생활을	-11.2749
▁간호조무사	-11.2751
▁기업들	-11.2753
냈	-11.2753
하시죠	-11.2755
레드	-11.2756
여러	-11.2757
▁삽입	-11.2759
▁지니	-11.2759
학과는	-11.276
▁없지만	-11.276
▁걸까요	-11.2761
보트	-11.2762
05.	-11.2762
▁언택트	-11.2762
▁철학과	-11.2764
깃	-11.2767
▁만약	-11.2768
▁조금이라도	-11.2768
power	-11.2769
▁손님	-11.2773
이어서	-11.2774
ura	-11.2774
▁창의적	-11.2775
▁아이의	-11.2776
하라고	-11.2777
▁있고요	-11.2778
편곡	-11.2778
++	-11.2779
해양경찰	-11.2779
chan	-11.278
download	-11.278
front	-11.2781
▁찾으	-11.2784
이랑	-11.2786
멜	-11.2786
▁에어컨	-11.2787
▁qr	-11.2788
▁영유아	-11.2789
▁많았	-11.279
부처	-11.2791
▁eng	-11.2792
▁살펴보	-11.2792
▁실용음악	-11.2792
▁주행	-11.2795
발성	-11.2795
▁관련해서	-11.2798
(10	-11.28
행정사	-11.28
▁여러분들	-11.2801
ej	-11.2804
▁재무제표	-11.2804
탐방	-11.2805
bri	-11.2805
깡	-11.2805
▁mind	-11.2805
gan	-11.2806
▁위상을	-11.2807
kevin	-11.2808
▁다음과	-11.2808
김진	-11.2808
▁개발하고	-11.2808
성의	-11.281
▁다양	-11.281
▁혁신을	-11.2811
▁다루고	-11.2812
_2018	-11.2814
▁복음	-11.2814
ica	-11.2816
▁해양수산	-11.2817
%2	-11.2817
▁첨부	-11.2818
▁목포	-11.2818
▁활용법	-11.2818
▁참고하시기	-11.282
▁쓰이는	-11.2822
-04-	-11.2824
shi	-11.2824
커버	-11.2824
▁수혜	-11.2825
▁보니까	-11.2826
▁70%	-11.2828
▁학습자	-11.2831
▁대행	-11.2832
bro	-11.2834
-9	-11.2834
upload	-11.2835
▁등과	-11.2836
▁지연	-11.2837
혜진	-11.2837
▁해결해	-11.2837
▁gs	-11.2838
yoon	-11.2838
계획서	-11.2838
▁service	-11.2839
▁서예	-11.284
date	-11.2843
통증	-11.2843
▁전단지	-11.2844
브라	-11.2844
▁한의사	-11.2845
▁가짜	-11.2846
▁굿	-11.2846
!!#	-11.2847
▁커트	-11.2847
040	-11.2847
찾	-11.2848
▁미술치료	-11.2852
▁실리콘	-11.2852
카이	-11.2852
▁슬기로운	-11.2854
▁cha	-11.2854
해봤습니다	-11.2855
랍	-11.2855
▁한정	-11.2856
정부는	-11.2856
장에	-11.2856
▁덕분에	-11.2857
경찰은	-11.2857
▁예능	-11.2858
포토샵	-11.286
전선	-11.2861
▁관리하는	-11.2862
▁구상	-11.2863
전기산업기사	-11.2863
ij	-11.2863
▁현장의	-11.2864
▁final	-11.2864
aspx	-11.2864
승진	-11.2865
져서	-11.2865
zr	-11.2866
개소	-11.2867
▁유일	-11.2869
ᄂ	-11.2869
▁로드맵	-11.2869
하모니카	-11.287
달라	-11.2871
zt	-11.2871
찾기	-11.2871
▁아이디어를	-11.2872
품질경영기사	-11.2873
간호조무사	-11.2873
심리상담	-11.288
▁sql	-11.2881
솔리드웍스	-11.2882
ize	-11.2884
법의	-11.2885
취업컨설팅	-11.2886
▁벌어	-11.2887
매일마다	-11.2887
▁공개됩니다	-11.2889
쇼핑	-11.2889
▁노조	-11.289
녹음	-11.289
팀의	-11.289
▁찍은	-11.2891
▁창업을	-11.2892
▁designer	-11.2895
▁주역	-11.2896
▁전문가들이	-11.2898
inform	-11.29
흐름	-11.29
성적	-11.29
▁인적	-11.2901
정보원	-11.2901
연구소장	-11.2901
▁분야를	-11.2901
준다	-11.2903
▁구조와	-11.2903
▁입고	-11.2903
회복	-11.2904
팩토리	-11.2906
▁꺼	-11.2906
▁일대	-11.2908
▁분석해	-11.2908
▁맞은	-11.291
메디컬	-11.291
▁박종	-11.291
분류	-11.2912
▁이르는	-11.2912
▁홍보동영상	-11.2913
해주고	-11.2913
▁여의도	-11.2915
했기	-11.2917
num	-11.2918
ble	-11.2919
애터미	-11.292
로만	-11.292
sil	-11.2923
▁외국계기업	-11.2923
통계학	-11.2923
▁도시계획	-11.2927
▁현업	-11.2927
▁사장님	-11.2929
중고	-11.2929
▁앞으로의	-11.293
노인복지	-11.293
▁말한다	-11.293
▁#2021	-11.2931
▁kaist	-11.2933
공전무	-11.2933
▁도대체	-11.2934
▁회사가	-11.2935
레저	-11.2935
▁신약	-11.2936
▁허위	-11.2937
클리	-11.2937
▁남아있	-11.2937
공부방법	-11.2939
▁hsk	-11.2941
▁most	-11.2941
▁줄여	-11.2941
대의	-11.2942
정민	-11.2944
위드	-11.2944
▁cu	-11.2944
▁작물	-11.2946
간판	-11.2947
테라피	-11.2947
▁모션	-11.2948
▁높일	-11.2948
▁type	-11.295
▁기하	-11.295
▁기대감	-11.295
왔던	-11.295
5-2	-11.295
▁조사분석자료	-11.2951
2@	-11.2952
▁힘들게	-11.2952
레크리에이션	-11.2952
▁그에	-11.2955
▁헬스	-11.2955
▁진행할	-11.2955
교육의	-11.2955
brunch	-11.2959
▁학교에서	-11.2959
▁단톡방	-11.296
▁날아	-11.2961
▁대통령의	-11.2962
▁development	-11.2963
▁다하겠습니다	-11.2964
고등	-11.2965
시원스쿨	-11.2966
▁url	-11.2968
비밀	-11.297
▁갤럭시	-11.2971
▁well	-11.2971
씻	-11.2972
도우미	-11.2972
마감	-11.2972
▁불가	-11.2975
내과	-11.2977
군은	-11.2978
▁war	-11.2979
▁수질환경산업기사	-11.298
▁예술가	-11.2981
▁#2020	-11.2983
aka	-11.2983
▁싶으시다면	-11.2985
▁세계적으로	-11.2985
▁총리	-11.2986
분들을	-11.2987
▁보내고	-11.2987
▁교재를	-11.299
▁상임	-11.2991
▁유의사항	-11.2992
sv	-11.2992
▁이루어	-11.2992
▁먹을	-11.2993
▁사용방법	-11.2993
kang	-11.2995
▁바쁜	-11.2995
▁원형	-11.2997
▁직원이	-11.2997
자인	-11.2999
공제	-11.2999
▁찐	-11.3001
▁잇	-11.3001
▁고등학생	-11.3004
dis	-11.3005
▁복잡	-11.3005
집단	-11.3006
cus	-11.3007
단기합격	-11.3007
▁대부분의	-11.3008
하시어	-11.301
자문	-11.3011
한번	-11.3013
스토	-11.3013
▁세트	-11.3014
업소	-11.3014
153	-11.3015
bts	-11.3016
▁지인	-11.3017
▁아니지만	-11.3017
▁쏘	-11.3017
프랜차이즈	-11.3018
▁추후	-11.3019
▁형사	-11.302
▁곳입니다	-11.302
옵	-11.3022
석사	-11.3023
medium	-11.3024
▁자연스럽게	-11.3024
▁간호학과	-11.3025
/37	-11.3025
pz	-11.3026
▁교육이	-11.3027
▁구조물	-11.3028
▁경쟁률	-11.303
중등	-11.303
▁엔지니어링	-11.303
먼트	-11.3031
영양학	-11.3033
▁물량	-11.3033
ning	-11.3035
▁44	-11.3035
=========	-11.3035
현대차	-11.3035
▁알아보도록	-11.3037
▁같아	-11.3039
▁여행을	-11.304
발전소	-11.304
▁sm	-11.3043
▁파티	-11.3043
계산	-11.3043
농가	-11.3044
연구개발	-11.3045
▁vision	-11.3046
▁red	-11.3046
▁안무	-11.3047
▁나누는	-11.3047
농사	-11.3049
not	-11.3051
트레이닝	-11.3052
avi	-11.3053
▁클	-11.3053
▁black	-11.3056
▁present	-11.3057
사회적	-11.3058
경영과	-11.3059
웹툰	-11.306
난방	-11.306
향상	-11.3061
▁역사적	-11.3061
▁전국의	-11.3063
반지	-11.3063
club	-11.3063
▁건설기계	-11.3064
▁오늘날	-11.3064
▁일일	-11.3064
들입니다	-11.3068
▁방영	-11.3069
▁영문	-11.307
▁작곡가	-11.3071
▁회사에서	-11.3072
긋	-11.3075
▁흔히	-11.3075
edison	-11.3076
▁문화콘텐츠	-11.3076
tiger	-11.3077
notice	-11.308
▁신라	-11.3081
▁부르	-11.3084
하셔도	-11.3085
▁hu	-11.3086
▁해주	-11.3087
▁사물	-11.3087
▁daydreamsound	-11.3088
▁측량	-11.3089
▁수업에	-11.3089
▁총평	-11.309
▁항공우주	-11.309
=8	-11.3093
▁없애	-11.3094
▁명칭	-11.3094
.6.	-11.3095
그러	-11.3095
ious	-11.3097
▁진행되었습니다	-11.3097
리모델링	-11.3097
buy	-11.31
대교	-11.31
success	-11.3101
유니	-11.3101
수는	-11.3102
▁세워	-11.3102
▁지루	-11.3104
▁둘러	-11.3104
▁올해는	-11.3105
▁퇴근	-11.3106
▁한양대학교	-11.3108
▁레전드	-11.311
max	-11.311
brand	-11.3112
공작	-11.3112
메가랜드	-11.3114
카카오스토리	-11.3115
▁회사를	-11.3115
▁add	-11.3118
▁보시	-11.3118
부족	-11.3118
▁대책을	-11.312
▁있기에	-11.3123
연구기관	-11.3125
3,000	-11.3126
옴	-11.3127
boo	-11.3128
jeong	-11.3128
▁청약	-11.3129
▁없어요	-11.3132
▁수익률	-11.3134
▁좋아요를	-11.3134
▁면적	-11.3134
▁용도	-11.3134
도움	-11.3134
▁권고	-11.3135
(2020	-11.314
▁주무관	-11.3141
trade	-11.3142
코스피	-11.3145
▁change	-11.3147
▁생산하는	-11.3148
니스	-11.315
자격시험	-11.315
규모	-11.3151
▁본인이	-11.3152
thank	-11.3152
content	-11.3153
▁코디	-11.3153
▁제공되는	-11.3154
페스티벌	-11.3154
▁인도네시아	-11.3154
원어민	-11.3154
▁바꾸	-11.3154
▁믿을	-11.3156
더욱	-11.3159
▁동원	-11.3159
▁사육	-11.316
polymer	-11.3167
효성	-11.3167
_01	-11.3169
▁민원	-11.3169
▁칼럼	-11.3172
▁김승	-11.3172
▁점차	-11.3172
소방공무원	-11.3173
baeu	-11.3174
▁합격꿀팁	-11.3174
▁190	-11.3174
부동산학개론	-11.3176
▁키움증권	-11.3177
▁계기로	-11.3179
개가	-11.318
스톤	-11.318
딜러	-11.318
마인드	-11.3181
▁대표는	-11.3182
스케	-11.3182
제거	-11.3185
다만	-11.3186
현진	-11.3187
▁평범한	-11.3187
가며	-11.3187
▁외교부	-11.3188
호주	-11.3189
move	-11.3189
▁남기	-11.3189
▁폐지	-11.319
▁크리스마스	-11.319
▁졸	-11.3191
ᄆ	-11.3193
▁오리	-11.3193
old	-11.3193
▁공원	-11.3194
적분	-11.3194
쉬운	-11.3194
ncd	-11.3195
▁규칙	-11.3197
▁사항이	-11.3198
▁인천시	-11.3198
▁현재까지	-11.3199
제일	-11.3199
▁출석	-11.3201
▁great	-11.3201
▁end	-11.3202
▁piano	-11.3203
통역	-11.3205
▁한류	-11.3206
east	-11.3206
원주	-11.3206
▁신속	-11.3206
▁세팅	-11.3207
/12	-11.3208
/34	-11.3209
대기환경기사	-11.321
김태	-11.3211
▁않기	-11.3212
인구	-11.3213
mil	-11.3215
능력을	-11.3216
▁무리	-11.3219
▁컨테이너	-11.3221
▁쿠팡	-11.3222
▁win	-11.3232
▁씨의	-11.3232
쇄	-11.3234
▁이어질	-11.3235
▁불가능	-11.3235
치료제	-11.3235
지훈	-11.3239
소비	-11.324
▁엔터테인먼트	-11.324
▁작업이	-11.3241
담당자	-11.3241
170	-11.3242
어진	-11.3242
기출문제풀이	-11.3243
뉴스타파	-11.3245
오리	-11.3245
딘	-11.3246
▁행위는	-11.3246
▁얻은	-11.3247
모양	-11.3248
크레인	-11.3249
년동안	-11.3251
zs	-11.3253
▁해양수산부	-11.3253
▁동행	-11.3254
체를	-11.3254
qf	-11.3255
▁채소	-11.3256
▁되는지	-11.3258
곡선	-11.3258
its	-11.3259
▁설명과	-11.3259
style	-11.3259
▁10:00	-11.3261
학의	-11.3261
▁비싼	-11.3262
▁성장하는	-11.3262
▁비평	-11.3263
▁이경	-11.3264
▁동사	-11.3266
거야	-11.3267
▁다르다	-11.3267
즐	-11.3269
sel	-11.327
최종	-11.327
▁이탈리아	-11.327
섰	-11.3271
▁명문	-11.3271
바우처	-11.3273
▁협회	-11.3276
▁어려움	-11.3276
캔	-11.3277
하면서도	-11.3279
%84%	-11.328
체대	-11.3281
▁아니며	-11.3282
▁코칭	-11.3282
▁인사이트	-11.3283
ses	-11.3285
킥	-11.3286
삐	-11.3286
냅니다	-11.3286
조성	-11.3286
독해	-11.3286
▁안정적인	-11.3287
▁학과소개	-11.3287
▁실습을	-11.3288
▁선수들	-11.3288
hero	-11.3288
소품	-11.3289
교수의	-11.3289
▁소규모	-11.3289
13.	-11.329
▁다하고	-11.3293
챔피언	-11.3294
▁숨은	-11.3294
title	-11.3294
▁기름	-11.3294
xt	-11.3296
▁기출해설	-11.3296
려서	-11.3297
▁water	-11.3297
▁발송배전	-11.3298
▁이주	-11.3299
윗	-11.3299
▁스피치	-11.33
퀴즈	-11.33
비상	-11.33
▁벤처	-11.3301
▁number	-11.3301
▁bar	-11.3301
보증	-11.3301
만여	-11.3302
▁후회	-11.3302
▁권한	-11.3302
▁없었습니다	-11.3303
▁학생부	-11.3304
뜻	-11.3304
아나운서	-11.3305
▁전문가와	-11.3305
▁오신	-11.3305
출신	-11.3307
터치	-11.3307
브레인	-11.3309
▁tour	-11.3309
직장	-11.331
보내	-11.3312
patreon	-11.3313
▁부동산공시법	-11.3313
▁미사일	-11.3314
▁흔적	-11.3315
▁상품을	-11.3315
복무	-11.3315
▁오직	-11.3316
har	-11.3317
트레이너	-11.3318
형식	-11.3319
▁위험한	-11.3319
▁흉	-11.332
▁관심있는	-11.3321
서울경제	-11.3322
▁휴식	-11.3322
▁나누	-11.3323
tab	-11.3324
▁이화여대	-11.3325
정밀	-11.3325
레스	-11.3325
▁뚫	-11.3326
보았어요	-11.3326
에겐	-11.3326
▁살펴봅니다	-11.3326
▁심판	-11.3327
▁170	-11.3328
▁국산화	-11.3328
끼리	-11.333
▁제작사	-11.3333
▁출강	-11.3334
▁생리	-11.3334
▁전달하는	-11.3335
흐	-11.3336
공인	-11.3338
▁경찰에	-11.3339
▁안내합니다	-11.3339
▁02.	-11.334
계리직	-11.3341
radio	-11.3344
플랜트	-11.3345
▁짐	-11.3346
▁체제	-11.3346
이혼	-11.3346
다며	-11.3347
▁생생	-11.3347
▁연료	-11.3349
▁발전소	-11.3349
개로	-11.335
3-1	-11.335
감리	-11.335
▁계시는	-11.335
▁명예	-11.3351
▁않아도	-11.3352
▁2005	-11.3352
▁광역	-11.3353
~3	-11.3353
하십시오	-11.3354
▁갤러리	-11.3355
▁활약	-11.3356
child	-11.3357
▁가격이	-11.3357
▁eu	-11.3357
▁제품은	-11.3358
외교	-11.3359
▁문제에	-11.3359
붕	-11.3364
qs	-11.3364
▁신축	-11.3365
신규	-11.3367
국문	-11.3368
▁ᅳ	-11.3368
▁추출	-11.3369
▁강점	-11.3369
김동	-11.337
ities	-11.337
▁스토리를	-11.3371
▁재개발	-11.3374
▁직업의	-11.3374
▁사유	-11.3375
▁돌봄	-11.3376
무술	-11.3376
▁동해	-11.3377
▁연합	-11.3378
▁리딩	-11.3378
▁끌	-11.3379
mission	-11.338
곳을	-11.3381
-06	-11.3381
국방뉴스	-11.3381
▁한일	-11.3382
▁전문성을	-11.3383
▁수업이	-11.3384
▁경영지도사	-11.3385
▁눈으로	-11.3387
▁증정	-11.3388
께서	-11.3388
▁적극적인	-11.3389
▁김유	-11.3391
▁대폭	-11.3394
▁선원	-11.3394
센터를	-11.3395
~7	-11.3397
▁앨범	-11.3399
▁관세	-11.34
▁끝내는	-11.34
aving	-11.3401
▁pi	-11.3402
▁월드	-11.3402
brain	-11.3403
▁세상의	-11.3403
sql	-11.3404
▁의존	-11.3406
먹는	-11.3406
되었던	-11.3407
온라인수업	-11.3408
정비사	-11.3411
▁가르치는	-11.3411
▁enter	-11.3411
▁퍼포먼스	-11.3412
▁차원에서	-11.3413
▁저항	-11.3413
벼	-11.3414
넣	-11.3414
▁환자의	-11.3415
기관으로서	-11.3416
▁기능성	-11.3418
▁2004	-11.3418
▁(3)	-11.3418
항공사	-11.3418
inst	-11.3418
▁야간	-11.3419
213	-11.342
▁key	-11.3425
ina	-11.3426
dev	-11.3427
▁업체들	-11.3427
▁옛	-11.3429
qxq	-11.3431
▁동물원	-11.3431
꼴	-11.3433
▁관람객	-11.3434
엑셀	-11.3435
▁의료진	-11.3436
▁끝내기	-11.3437
240	-11.3437
꾸미기	-11.3437
▁참여하는	-11.3439
▁함께합니다	-11.3441
버리	-11.3441
▁물품	-11.3442
스팅	-11.3444
싼	-11.3444
china	-11.3445
▁시작해	-11.3446
▁65	-11.3446
자들은	-11.3447
말고	-11.3449
▁기준을	-11.345
농협은행	-11.3454
▁academy	-11.3457
▁장기화	-11.3457
▁좋고	-11.3458
▁시청하실	-11.3458
▁누군가	-11.3459
신용	-11.346
▁부르는	-11.3461
▁대기오염	-11.3462
▁시흥시	-11.3463
▁운영자	-11.3463
▁사라지	-11.3463
▁적용할	-11.3464
ile	-11.3465
▁iso	-11.3466
페이스	-11.3469
pia	-11.3469
▁fm	-11.3469
▁스페셜	-11.347
▁연소	-11.3473
▁제품이	-11.3474
▁크루즈	-11.3475
phil	-11.3476
las	-11.3477
▁제고	-11.3482
씨의	-11.3483
부탁드립니다	-11.3485
▁자리에	-11.3485
▁목소리를	-11.3487
▁산책	-11.3487
▁사이버어학원	-11.3488
▁young	-11.3489
기원	-11.3489
쳤	-11.349
연구단	-11.3491
▁강의자료	-11.3491
테마주	-11.3492
▁당국	-11.3494
▁무시	-11.3496
서구	-11.3498
▁릴레이	-11.3498
▁경찰이	-11.3499
~12	-11.35
▁퀄리티	-11.3501
▁기다려	-11.3501
▁분해	-11.3502
ual	-11.3502
▁희망을	-11.3502
▁약국	-11.3502
치매예방	-11.3505
▁빨	-11.3505
폴리	-11.3505
▁임신	-11.3506
ors	-11.3507
▁수협	-11.3507
▁개선을	-11.3507
▁했어요	-11.3507
cri	-11.3508
▁성남	-11.3508
스포	-11.3509
▁"(	-11.351
maker	-11.3513
▁지원하고	-11.3514
서예	-11.3515
겐	-11.3515
▁콩	-11.3515
▁장착	-11.3515
▁팩트	-11.3515
drawing	-11.3515
▁후보자	-11.3516
▁영남	-11.3518
note	-11.3519
▁변동	-11.3522
캐스트	-11.3524
정윤	-11.3525
서비스를	-11.3527
시니어	-11.3528
▁feel	-11.3529
▁수수료	-11.3529
▁신앙	-11.3529
▁넓은	-11.353
주시는	-11.353
6&	-11.353
▁의미와	-11.3531
▁직업에	-11.3533
▁이명	-11.3534
▁생화학	-11.3535
tell	-11.3536
▁정보보안	-11.3537
mac	-11.3541
사각	-11.3542
▁짧고	-11.3542
팩트	-11.3543
포털	-11.3546
편입니다	-11.3547
거래소	-11.3547
▁묻	-11.355
diy	-11.3554
▁소음	-11.3556
▁출동	-11.3556
상세	-11.3556
▁기쁨	-11.3556
▁건축가	-11.3556
이정우	-11.3557
▁머니투데이방송	-11.3559
▁신도시	-11.356
▁min	-11.356
▁한국사능력검정시험	-11.356
▁기출문제를	-11.3562
▁프린터	-11.3562
▁공존	-11.3562
tle	-11.3563
▁법정	-11.3564
learn	-11.3567
연세대	-11.3567
▁유산	-11.3567
▁big	-11.3568
▁학습법	-11.3568
▁흘러	-11.3569
▁늦어	-11.357
▁ni	-11.3574
▁기대해주세요	-11.3574
▁분명	-11.3575
▁분석하고	-11.3576
뭉	-11.3578
우기	-11.358
▁뽑아	-11.3581
▁수험생이	-11.3581
▁놀러오세요	-11.3583
▁human	-11.3585
▁궁	-11.3587
씨가	-11.3587
▁화학공학	-11.3588
방사선	-11.3589
콕	-11.3589
▁출장	-11.3591
money	-11.3591
▁상담문의	-11.3591
물론	-11.3593
tour	-11.3593
▁network	-11.3595
평생교육	-11.3596
=6	-11.3596
▁앞둔	-11.3598
color	-11.3598
사로	-11.3598
▁애니	-11.3599
qj	-11.3601
.8.	-11.3603
lie	-11.3604
▁흥미를	-11.3604
생각보다	-11.3606
▁몸에	-11.3606
▁살펴보기	-11.3606
▁생활과	-11.3607
▁방법입니다	-11.361
끈	-11.3613
썸네일	-11.3613
==============	-11.3613
▁이야기입니다	-11.3614
▁목표를	-11.3615
국가자격증	-11.3615
▁학습효과	-11.3617
▁마법	-11.3617
▁테러	-11.3618
▁사업의	-11.362
plo	-11.3621
관리론	-11.3622
ham	-11.3622
수협	-11.3624
▁관장	-11.3624
▁보신	-11.3625
힙합	-11.3625
▁몸을	-11.3627
게시판	-11.3627
easy	-11.3629
▁압축	-11.363
연설	-11.363
▁원인을	-11.363
▁가성비	-11.363
아이들	-11.3631
▁문화의	-11.3631
▁면접을	-11.3632
댓글로	-11.3633
릅니다	-11.3633
▁보며	-11.3633
btn	-11.3635
fit	-11.3636
▁입증	-11.3636
eye	-11.3637
▁인강드림	-11.3639
care	-11.3642
▁금형	-11.3642
▁결과물	-11.3643
▁신동	-11.3643
▁그렇다면	-11.3644
▁autocad	-11.3644
▁주체	-11.3645
sion	-11.3647
▁준비가	-11.365
▁속으로	-11.3652
450	-11.3652
7)	-11.3654
nes	-11.3654
균형	-11.3654
▁허리	-11.3657
▁dan	-11.3657
▁start	-11.3658
▁썼	-11.3659
▁상태에서	-11.3661
▁관객	-11.3663
▁게스트	-11.3664
사태	-11.3664
▁겪는	-11.3666
2&	-11.3667
▁경찰청	-11.3668
▁비슷	-11.3669
정상	-11.3669
▁보건소	-11.367
생생	-11.367
▁읽어주는	-11.3671
해주셨습니다	-11.3672
피부미용	-11.3672
eco	-11.3673
▁160	-11.3673
piano	-11.3673
▁일러스트레이터	-11.3676
▁지질	-11.3676
▁내용들을	-11.3677
구입	-11.3679
▁형법	-11.3679
기본서	-11.3679
곳에	-11.3679
▁장인	-11.368
발음	-11.368
▁서구	-11.3682
kin	-11.3683
독립	-11.3684
쓸	-11.3686
▁차근차근	-11.3687
재활운동	-11.3687
이러한	-11.3687
▁수면	-11.3688
▁마치고	-11.3689
▁해법	-11.3689
발생	-11.3689
▁프로그램입니다	-11.369
ible	-11.3691
▁sur	-11.3693
산업인력공단	-11.3693
▁보내주시면	-11.3694
▁블	-11.3694
▁답답	-11.3694
▁높아지고	-11.3694
cal	-11.3696
매직	-11.3699
▁트레이너	-11.3701
▁값	-11.3702
▁cf	-11.3702
부동산투자	-11.3705
불교방송	-11.3706
▁기획사	-11.3706
▁편리	-11.3707
▁인생을	-11.3707
▁어렵	-11.3708
mooc	-11.3709
매트	-11.371
▁기다리고	-11.371
알림	-11.3711
▁환경에	-11.3711
문화예술교육	-11.3712
▁happy	-11.3712
▁뜨는	-11.3715
166	-11.3716
▁행복을	-11.3718
▁남편	-11.372
▁과일	-11.3723
▁night	-11.3723
▁정체	-11.3723
전산세무	-11.3724
▁부위	-11.3724
편은	-11.3724
▁어렵게	-11.3725
4-1	-11.3726
▁윈도우	-11.3727
집에서	-11.3729
ney	-11.3731
del	-11.3733
지휘	-11.3734
▁부과	-11.3734
▁입금	-11.3735
ucufu	-11.3735
▁분할	-11.3736
▁mr	-11.3737
▁전자상거래	-11.374
▁단순한	-11.374
▁계절	-11.3741
사이드	-11.3742
디스	-11.3743
다시보기	-11.3743
▁그것을	-11.3745
▁하시고	-11.3745
▁비용이	-11.3746
보수	-11.3746
▁아예	-11.3747
▁주제를	-11.3749
▁입원	-11.3749
▁빨간	-11.375
주시고	-11.375
▁담을	-11.3753
영진	-11.3753
마루	-11.3755
cloud	-11.3755
뚜	-11.3755
즉	-11.3756
▁미래에	-11.3759
▁산불	-11.3761
▁세번째	-11.3762
해부학	-11.3762
▁ask	-11.3763
cz	-11.3763
▁밝힌	-11.3763
▁베이스	-11.3763
▁매뉴얼	-11.3763
▁이전에	-11.3764
▁치열한	-11.3764
▁검정	-11.3764
▁삶과	-11.3764
usua	-11.3765
나가	-11.3766
......	-11.3768
▁해경	-11.3769
▁효과적으로	-11.3769
▁군산	-11.3769
181	-11.377
제과제빵	-11.377
교보문고	-11.377
▁이송	-11.3772
▁^	-11.3772
댄서	-11.3772
밴	-11.3772
215	-11.3772
▁줄이고	-11.3773
▁않아요	-11.3773
▁시대가	-11.3775
▁템플릿	-11.3776
▁부처	-11.3777
모아	-11.3777
album	-11.3777
▁유물	-11.3777
온라인강의	-11.3778
▁색상	-11.3778
▁session	-11.3779
325	-11.3779
▁수의사	-11.378
see	-11.3781
유니브	-11.3781
▁타이	-11.3783
▁이어지는	-11.3783
민수	-11.3783
▁김형	-11.3785
▁사용을	-11.3785
▁궁금하	-11.3785
말씀	-11.3786
zone	-11.3788
동향	-11.3788
▁데일리	-11.3788
예스	-11.3789
▁미친	-11.3789
▁off	-11.379
▁중요하다	-11.3791
mate	-11.3793
▁요양병원	-11.3793
이전	-11.3794
▁place	-11.3794
▁스마트스토어	-11.3796
▁왔어요	-11.3796
▁인천공항	-11.3797
▁의료기관	-11.3798
▁추진하고	-11.3798
미션	-11.3798
북구	-11.3798
▁환급	-11.3799
볼까요	-11.38
23(	-11.3803
▁줄어들	-11.3804
▁분량	-11.3804
▁않다	-11.3806
▁et	-11.3806
좌장	-11.3806
▁han	-11.3809
비율	-11.381
믿	-11.381
_2014	-11.3814
▁경찰관	-11.3814
▁고객센터	-11.3815
▁합격수기	-11.3818
▁변수	-11.3818
▁협	-11.3819
▁닭	-11.3819
▁좋겠어요	-11.3819
▁자랑하고	-11.382
문화유산	-11.382
chosun	-11.3821
▁활용도가	-11.3821
▁학습자료	-11.3822
videomug	-11.3823
▁테크	-11.3824
(5)	-11.3824
▁기울	-11.3824
상담문의	-11.3824
▁압박	-11.3825
▁멀리	-11.3825
channela	-11.3828
▁컴퓨터활용능력	-11.3829
▁석유화학	-11.383
▁특성화고	-11.383
ating	-11.3831
cul	-11.3831
종교	-11.3832
▁그만큼	-11.3833
▁팔로우	-11.3834
▁갈수록	-11.3834
▁온오프라인	-11.3835
▁다음카페	-11.3836
▁250	-11.3836
▁검역	-11.3836
ral	-11.3837
잠수	-11.3837
▁화려한	-11.3838
▁혼란	-11.3839
▁삼프로	-11.3839
▁vip	-11.384
ative	-11.3841
beat	-11.3842
digital	-11.3842
▁의지	-11.3843
ktwda	-11.3847
wmxw	-11.3847
▁questions	-11.3847
artlist	-11.3848
▁빠진	-11.3849
▁폴리	-11.385
▁상담신청	-11.3851
dz	-11.3852
▁큐레이터	-11.3852
▁심사위원	-11.3853
테이	-11.3855
▁부산시	-11.3855
host	-11.3856
코스닥	-11.3858
면서도	-11.3861
▁앱을	-11.3861
▁(2018	-11.3862
▁전합니다	-11.3863
노조	-11.3866
▁모드	-11.3867
▁우승	-11.3867
방울	-11.3867
▁{	-11.3868
inside	-11.387
▁스카이	-11.3871
103	-11.3872
컨퍼런스	-11.3874
해볼	-11.3875
▁연락주시면	-11.3876
▁리듬	-11.3876
▁연구진이	-11.3876
▁북미	-11.3876
▁4.0	-11.3877
시의회	-11.3879
▁높이기	-11.3881
웃음치료	-11.3883
▁오페라	-11.3884
▁별도	-11.3885
▁매달	-11.3886
포스트코로나	-11.3887
머니투데이방송	-11.3888
쌤과	-11.3889
▁찾은	-11.389
식으로	-11.3891
▁진동	-11.3892
▁승리	-11.3892
전화상담	-11.3893
▁대담	-11.3894
개사	-11.3894
▁한국형	-11.3896
▁달라질	-11.3897
▁아웃	-11.3897
▁산림기사	-11.3899
▁$	-11.3901
▁불리	-11.3902
~9	-11.3903
덧	-11.3903
▁페스티벌	-11.3903
/4.0/)	-11.3903
▁겸임교수	-11.3903
qi	-11.3904
uck	-11.3904
예측	-11.3906
돌이	-11.3909
▁나중에	-11.3909
어업	-11.391
기자단	-11.391
의뢰	-11.391
갔	-11.3912
▁환자가	-11.3914
전산응용기계제도기능사	-11.3914
떨	-11.3915
▁악화	-11.3917
006	-11.3917
qp	-11.3918
ozsran	-11.3918
배송	-11.3919
▁below	-11.3919
지능	-11.3919
이게	-11.3919
▁사회적경제	-11.3919
▁미션	-11.392
인물	-11.3921
▁남아	-11.3925
▁사람에게	-11.3926
▁이틀	-11.3927
gra	-11.3927
동원	-11.3928
닌	-11.3929
pla	-11.3929
비지니스	-11.393
플로	-11.3931
취업준비생	-11.3934
요법	-11.3934
▁중구	-11.3935
▁부채	-11.3935
보이스	-11.3939
▁마지막으로	-11.394
▁받아야	-11.3942
▁건축사	-11.3944
커트	-11.3944
beauty	-11.3945
마케터	-11.3945
사운드	-11.3945
/11	-11.3946
탭	-11.3947
▁되려면	-11.3948
카라	-11.3948
국토	-11.3949
▁간단히	-11.3949
▁사단법인	-11.395
▁생산성	-11.395
기대	-11.395
▁코스닥	-11.395
오일	-11.3951
▁허브	-11.3951
▁같아서	-11.3956
▁끝내	-11.3958
1&	-11.3958
총괄	-11.3959
▁hard	-11.396
솜	-11.396
common	-11.396
농부	-11.396
▁75	-11.3962
▁당선	-11.3964
▁양성과정	-11.3965
주린이	-11.3966
▁제공함으로써	-11.3967
서울시립대	-11.3967
▁프린팅	-11.397
direct	-11.397
ram	-11.397
스런	-11.3972
▁못했던	-11.3974
▁오토	-11.3974
▁대방출	-11.3974
교재구입	-11.3975
seminar	-11.3975
▁부탁드리겠습니다	-11.3975
공주	-11.3976
안무	-11.3976
▁mark	-11.3977
서양	-11.3978
▁푸드	-11.3978
품을	-11.3979
어느	-11.398
=2017	-11.398
▁예정이니	-11.3982
▁lng	-11.3982
clo	-11.3984
water	-11.3988
안전보건	-11.3988
박문각	-11.3988
▁테이블	-11.399
▁수요가	-11.3991
▁기상청	-11.3991
창호	-11.3991
천안	-11.3992
▁파악하고	-11.3993
▁버는	-11.3993
탱크	-11.3994
쁘	-11.3994
▁운영을	-11.3998
▁뮤직	-11.3998
▁움직이	-11.4
▁교재와	-11.4
▁특화	-11.4
▁반면	-11.4003
센스	-11.4003
war	-11.4004
기어	-11.4005
▁원하시면	-11.4006
▁떼	-11.4006
▁글로	-11.4008
문화재청	-11.4008
▁충분한	-11.4008
▁가입하시면	-11.4008
쌤입니다	-11.4009
▁위험물기능장	-11.4009
▁1.5	-11.4011
▁유통업체	-11.4012
▁뭔가	-11.4014
▁수질	-11.4015
▁비난	-11.4016
▁1,000	-11.4017
▁독특한	-11.4017
동의	-11.4019
▁문제해결	-11.4019
▁한양대	-11.402
▁신임	-11.4021
moe	-11.4021
소형	-11.4022
산업단지	-11.4022
▁삼각	-11.4023
mod	-11.4023
통번역	-11.4023
법원	-11.4023
포커스	-11.4024
인공	-11.4025
▁음식을	-11.4026
저자	-11.4027
modu	-11.4028
수다	-11.403
4-2	-11.4032
pilot	-11.4032
소묘	-11.4032
이민	-11.4033
소독	-11.4034
▁명령	-11.4034
pack	-11.4035
학력	-11.4036
▁쥐	-11.4037
▁cloud	-11.4039
정화	-11.4039
▁city	-11.404
▁싫어	-11.4041
학위	-11.4042
사업부	-11.4044
2006	-11.4045
팍	-11.4046
세인에듀	-11.4046
개강	-11.4048
era	-11.4048
레이저	-11.4049
▁격리	-11.4051
▁착수	-11.4053
취업스터디	-11.4054
iam	-11.4054
▁미국과	-11.4054
▁김희	-11.4057
▁렌즈	-11.4057
▁인류의	-11.4057
▁감지	-11.4061
ping	-11.4062
▁장관은	-11.4062
▁축소	-11.4063
script	-11.4063
▁님	-11.4064
웠	-11.4065
▁내에서	-11.4067
▁캐드	-11.4067
금형	-11.4068
laf	-11.4068
분은	-11.4068
이미	-11.4069
▁ti	-11.407
▁이은	-11.4071
▁이들의	-11.4072
궁금	-11.4072
nbc	-11.4074
태국어	-11.4074
▁would	-11.4075
출제	-11.4075
▁기업으로	-11.4076
▁여정	-11.4078
▁대치동	-11.4079
▁타격	-11.4082
▁many	-11.4083
▁넘어야	-11.4083
▁동일	-11.4084
▁싶어요	-11.4084
▁운명	-11.4084
▁생각보다	-11.4086
▁핀	-11.4086
플렉스	-11.4086
▁개발과	-11.4087
107	-11.4087
▁간편	-11.4087
놓은	-11.4088
▁여는	-11.4089
▁주시고	-11.4089
쪽으로	-11.409
▁알리는	-11.409
▁공부해야	-11.4091
▁진행해	-11.4091
따라서	-11.4093
ᄏ	-11.4093
▁이들은	-11.4096
▁상업	-11.4097
▁영상에는	-11.4097
인격	-11.4097
▁right	-11.4098
차별	-11.4099
▁나타나는	-11.41
▁사회에	-11.4101
▁대기환경산업기사	-11.4102
▁확충	-11.4104
▁다룬	-11.4105
▁mini	-11.4108
▁통과해	-11.411
▁뜨	-11.411
▁너무나	-11.411
단타	-11.411
▁늘어	-11.4111
▁편견	-11.4111
▁110	-11.4112
파리	-11.4113
마크	-11.4114
엑스포	-11.4116
학생부종합	-11.4117
▁걸리	-11.4117
▁보시기	-11.4117
▁공중	-11.4118
uce	-11.4118
uri	-11.4118
▁좌우	-11.4124
▁배양	-11.4125
2222	-11.4125
guide	-11.4126
▁수송	-11.4127
▁사회문화	-11.4128
문제를	-11.4128
연속	-11.4128
탈북	-11.4129
xz	-11.413
시연	-11.4132
▁보여주고	-11.4132
국의	-11.4132
뚱	-11.4132
▁알려드리겠습니다	-11.4134
리드	-11.4134
미기	-11.4134
▁없었던	-11.4137
▁부회장	-11.4138
doc	-11.4139
pet	-11.4141
▁오른	-11.4143
▁99%	-11.4144
메가	-11.4145
▁개학	-11.4146
해줄	-11.4147
▁믿음	-11.4147
▁열풍	-11.4147
3-4	-11.415
dal	-11.415
▁단답	-11.4151
금리	-11.4151
▁선진국	-11.4152
오디션	-11.4153
위탁	-11.4153
▁추구	-11.4153
covid	-11.4153
연료	-11.4153
노무사	-11.4153
adobe	-11.4153
dro	-11.4154
▁해결할	-11.4154
함이	-11.4158
hang	-11.4158
▁신뢰할	-11.4158
▁공동으로	-11.4158
▁그게	-11.4159
▁합격하세요	-11.4159
시대의	-11.416
보실까요	-11.4161
▁둘러싼	-11.4162
_______________	-11.4162
해야할	-11.4162
▁색깔	-11.4162
mfds	-11.4162
▁의협	-11.4163
고려대	-11.4164
▁직원들이	-11.4165
▁정수	-11.4165
부를	-11.4167
체제	-11.4167
▁방산	-11.4168
▁미중	-11.4168
▁교보문고	-11.4168
▁계기가	-11.417
주방	-11.4171
십니다	-11.4172
▁지표	-11.4172
▁geo	-11.4173
홈쇼핑	-11.4176
▁알려드리는	-11.4177
▁화장실	-11.4178
▁바라는	-11.4179
▁비즈	-11.4179
(20	-11.4181
▁수확	-11.4182
▁ikson	-11.4182
얼굴	-11.4184
됐지만	-11.4185
▁바리스타	-11.4186
왔다	-11.419
봤다	-11.419
%20	-11.4191
베트남어	-11.4191
▁문제집	-11.4192
▁인기를	-11.4194
▁댓글이나	-11.4196
시안	-11.4197
▁된다고	-11.4199
갔습니다	-11.42
▁한수진	-11.4201
룰	-11.4202
오직	-11.4204
▁어렵고	-11.4205
▁곁	-11.4205
dar	-11.4208
▁내외	-11.4209
304	-11.4209
라운드	-11.4211
▁고민하고	-11.4211
나리	-11.4211
지적	-11.4215
▁월간	-11.4216
수학을	-11.4216
3&	-11.4216
똑똑한	-11.4216
▁양성하는	-11.4217
님들의	-11.4217
▁자회사	-11.4218
▁차관	-11.4218
▁음식점	-11.422
▁집을	-11.4222
복원	-11.4222
▁인터	-11.4223
▁임직원	-11.4223
▁손쉽게	-11.4223
▁자원봉사	-11.4224
요양	-11.4224
▁네이버밴드	-11.4224
가기	-11.4225
baby	-11.4228
rain	-11.4228
▁기술인력	-11.4228
처분	-11.4228
jong	-11.4228
돼야	-11.4229
전원주택	-11.4229
▁기구	-11.4229
▁주시는	-11.423
▁뛰어	-11.4231
마저	-11.4232
▁링크로	-11.4234
▁시작됩니다	-11.4234
동요	-11.4237
▁덮	-11.4237
편을	-11.4238
/2020_	-11.4239
▁스트레칭	-11.424
▁기재	-11.424
▁오브	-11.4241
미용실	-11.4242
그런	-11.4243
갱	-11.4243
161	-11.4244
▁원의	-11.4245
학원에서	-11.4245
스럽	-11.4245
dqw	-11.4245
내용을	-11.4246
재해	-11.4247
▁재고	-11.4248
▁함께한	-11.4249
이던	-11.4249
▁욕설	-11.425
▁당연히	-11.4251
▁추천합니다	-11.4252
▁한중	-11.4252
▁매월	-11.4253
▁쌓아	-11.4255
원본	-11.4256
속으로	-11.4257
바디	-11.4257
▁중간고사	-11.4259
영민	-11.426
▁최소한	-11.4261
▁분노	-11.4262
왔어요	-11.4262
강원도	-11.4263
▁방류	-11.4265
아무	-11.4266
▁고고	-11.4268
▁제외한	-11.4269
▁치아	-11.4269
방법을	-11.427
▁지분	-11.427
isrc	-11.4272
▁여론조사	-11.4272
보석	-11.4272
▁원이	-11.4277
▁찾아뵙겠습니다	-11.4278
▁사로잡	-11.4279
▁선행학습	-11.4279
▁불량	-11.4281
)1.	-11.4285
▁보충	-11.4286
경희	-11.4288
block	-11.4288
▁길어	-11.4289
▁승부	-11.429
▁표현을	-11.4292
고양이	-11.4292
▁사전에	-11.4293
국립생태원	-11.4293
▁악보	-11.4296
협정	-11.4297
인트로	-11.4297
core	-11.4297
▁튜토리얼	-11.4298
캠핑	-11.4298
▁부인	-11.4298
상품권	-11.4299
▁받으시	-11.43
사단법인	-11.4304
시청해주셔서	-11.4304
etf	-11.4307
183	-11.4307
펑	-11.4308
▁백화점	-11.4308
▁노트북	-11.4308
▁책임소재	-11.4309
doctor	-11.4309
▁엄청	-11.431
문화센터	-11.4312
▁모터	-11.4312
▁:)#	-11.4313
▁합격전략	-11.4313
어스	-11.4314
일부	-11.4315
▁마주	-11.4315
▁랩	-11.4315
cre	-11.4316
또는	-11.4316
▁회사에	-11.4317
▁소감	-11.4318
방정식	-11.4318
인터	-11.4319
14.	-11.432
쿡	-11.4323
▁누르고	-11.4323
▁52	-11.4324
태양	-11.4324
▁친절하게	-11.4325
▁토목시공기술사	-11.4325
▁소통하는	-11.4325
케이블	-11.4326
책방	-11.4326
비는	-11.4326
farm	-11.4327
▁방학	-11.4327
▁ab	-11.4328
▁상표	-11.4328
▁much	-11.433
333	-11.4331
▁형식으로	-11.4331
▁지름길입니다	-11.4331
▁붓	-11.4334
▁기업들의	-11.4334
▁이끌	-11.4335
한양대학교	-11.4337
▁포착	-11.4337
홀딩스	-11.4337
▁파헤쳐	-11.4337
▁지적이	-11.4338
▁리스크	-11.434
250	-11.434
았던	-11.4341
▁줄일	-11.4341
ori	-11.4341
여서	-11.4343
joo	-11.4343
128	-11.4346
▁이미지를	-11.4346
21.	-11.435
camera	-11.435
자체	-11.435
audioclip	-11.4352
▁이란	-11.4355
▁무제한	-11.4355
협약	-11.4355
▁유입	-11.4356
▁super	-11.4356
감상	-11.4356
/38	-11.4357
행정직	-11.4358
▁규모로	-11.4358
~30	-11.436
▁경희대학교	-11.436
▁아이돌	-11.4361
▁무상	-11.4362
두레	-11.4363
엔터	-11.4363
▁취임	-11.4366
▁착한	-11.4366
▁관광통역안내사	-11.4366
research	-11.4367
요양병원	-11.4367
▁푸른	-11.4367
으로서의	-11.4367
▁성실하게	-11.4367
soon	-11.4367
path	-11.4368
▁360	-11.4368
sch	-11.4369
▁보내드립니다	-11.4369
ann	-11.437
▁nh	-11.437
그램	-11.437
▁자라	-11.4371
동남	-11.4371
▁들어보세요	-11.4372
▁방식을	-11.4373
▁혼합	-11.4374
▁설명으로	-11.4374
김민	-11.4374
ward	-11.4374
복지관	-11.4374
▁현대미술	-11.4374
▁365	-11.4375
▁매각	-11.4376
▁비방	-11.4377
▁단장	-11.4377
▁먼	-11.4378
▁진정	-11.4379
▁어디서나	-11.4379
조선소	-11.4379
▁랜드하나	-11.438
▁담겨	-11.4381
수산물	-11.4382
한국무역협회	-11.4382
▁짧게	-11.4382
농촌	-11.4384
▁방법론	-11.4384
999	-11.4385
▁항해	-11.4385
▁회계원리	-11.4387
승호	-11.4387
메디	-11.4387
극단	-11.4388
▁법안	-11.4388
넬	-11.4391
▁패션디자인	-11.4392
땡	-11.4393
▁state	-11.4393
▁끝난	-11.4394
▁movie	-11.4395
▁어르신	-11.4395
기생충	-11.4396
▁드리	-11.4397
▁구별	-11.4397
silver	-11.4397
발표자	-11.4398
ban	-11.4399
▁subtitles	-11.4402
qt	-11.4404
===============	-11.4406
▁member	-11.4406
▁모델을	-11.4408
▁개발하는	-11.4408
불안	-11.441
▁효율성	-11.4412
▁확실히	-11.4412
현지	-11.4413
scode	-11.4418
/20	-11.4419
약대	-11.4419
(2015	-11.4422
줬	-11.4423
▁major	-11.4424
조작	-11.4424
▁레이	-11.4424
유정	-11.4425
▁풀영상	-11.4425
포스코	-11.4426
▁본격화	-11.4426
▁패스북	-11.4427
system	-11.4427
▁어렵습니다	-11.4428
▁혈액	-11.4428
선이	-11.4428
▁49	-11.4428
▁마시	-11.4428
▁해결하기	-11.443
▁한번씩	-11.443
▁자전거	-11.4431
▁화제	-11.4431
▁bts	-11.4431
1,2	-11.4431
▁심도	-11.4433
마비	-11.4434
줘야	-11.4434
math	-11.4435
▁중개	-11.4435
미드	-11.4436
▁code	-11.4438
zp	-11.4439
전달	-11.444
▁어려울	-11.4441
캘	-11.4441
노인복지관	-11.4443
▁강사님	-11.4444
▁director	-11.4445
lhak	-11.4447
▁재직	-11.4447
▁점에서	-11.4449
아야	-11.4449
▁등장하는	-11.445
돼지	-11.445
▁참가해	-11.4451
self	-11.4451
▁고민하는	-11.4452
▁원본	-11.4452
▁지내	-11.4454
학급	-11.4455
▁para	-11.4456
됐	-11.4456
스톡	-11.4456
▁가르쳐	-11.4457
330	-11.4457
플라워	-11.4457
▁텔레그램	-11.4457
▁로고	-11.4458
▁충족	-11.4458
point	-11.4459
무늬	-11.4462
트위치	-11.4464
▁시급	-11.4465
▁직원들	-11.4466
▁미치	-11.4467
뮤	-11.4469
문서	-11.4471
지정	-11.4473
▁드러나	-11.4474
▁이래	-11.4474
▁멘트	-11.4481
▁진도	-11.4481
단은	-11.4483
▁금속재료	-11.4484
경제연구소	-11.4485
코레일	-11.4488
산업안전기사	-11.4489
ini	-11.449
▁그날까지	-11.4492
▁레크리에이션	-11.4493
movie	-11.4496
▁남부	-11.4496
▁담당하는	-11.4498
중간	-11.4499
▁재단	-11.45
▁지나간	-11.45
▁미만	-11.45
▁물리치료사	-11.4501
▁사용하기	-11.4501
▁성남시	-11.4501
리움	-11.4501
▁교수님과	-11.4502
ign	-11.4503
dang	-11.4503
지오	-11.4503
시거나	-11.4504
▁음료	-11.4505
▁섞	-11.4506
흡	-11.4507
지와	-11.4507
▁굽	-11.4508
ybm	-11.4509
▁since	-11.4509
드리도록	-11.4512
▁문구	-11.4514
응원	-11.4514
▁합리적인	-11.4514
광고대행사	-11.4515
되기도	-11.4515
▁과정은	-11.4516
▁스파	-11.4517
상조	-11.4517
마스	-11.4517
737	-11.4518
학술대회	-11.452
▁수는	-11.4521
▁병원에서	-11.4523
tre	-11.4523
"[	-11.4523
산업안전	-11.4523
▁2030	-11.4524
▁발주	-11.4524
▁세무회계	-11.4525
imnews	-11.4526
▁선정된	-11.4528
taekwondo	-11.4531
spotify	-11.4531
▁봐주시면	-11.4532
총장	-11.4533
▁반영한	-11.4537
▁미팅	-11.4538
273	-11.4538
▁오른쪽	-11.4539
외식	-11.4541
▁자막을	-11.4543
윤석	-11.4544
▁부모님	-11.4544
해보겠습니다	-11.4546
계수	-11.4546
업로드	-11.4546
사피엔스	-11.4546
▁픽	-11.4547
▁방침	-11.4549
▁케이크	-11.4551
돌봄	-11.4551
스포츠지도사	-11.4552
행사대행	-11.4553
▁학점	-11.4554
▁참고해	-11.4554
커스	-11.4556
que	-11.4557
구축	-11.4559
▁현장실습	-11.4559
▁혼자서	-11.456
쩌	-11.456
환경공학	-11.4561
journal	-11.4562
▁jung	-11.4562
___	-11.4563
▁영상취재	-11.4563
▁파업	-11.4564
곳이	-11.4564
착한	-11.4566
응시자격	-11.4566
프린팅	-11.4566
▁않으며	-11.4567
메이킹	-11.4567
▁집필	-11.4568
▁vo	-11.4568
▁청정	-11.4569
▁가졌습니다	-11.4571
▁광고를	-11.4573
모습	-11.4573
율이	-11.4574
▁국가평생교육진흥원	-11.4577
▁이메일로	-11.4577
▁연령	-11.4578
옥션	-11.4578
▁몰랐던	-11.4578
▁프라	-11.4581
김경	-11.4582
▁이것이	-11.4582
으세요	-11.4582
▁제과제빵	-11.4584
▁돌아가	-11.4585
▁thank	-11.4586
css	-11.4586
▁보여주	-11.4587
수현	-11.4588
-18	-11.4589
쪽에	-11.4589
▁들을	-11.4591
▁40%	-11.4592
▁준수하고	-11.4592
▁귀여운	-11.4593
▁연동	-11.4593
▁발송	-11.4594
▁설교	-11.4595
교수님의	-11.4595
스터디채널	-11.4596
▁출구	-11.4596
broadcast	-11.4598
보존	-11.4599
중요	-11.46
▁하시기	-11.4601
▁바뀌	-11.4602
고시학원	-11.4602
신문사	-11.4603
짓기	-11.4604
▁헬	-11.4605
부산대	-11.4606
979	-11.4606
핑크	-11.4607
▁큽니다	-11.4607
펄	-11.4607
▁challenge	-11.4607
▁역학	-11.4609
▁협력을	-11.461
share	-11.4611
수석	-11.4616
▁손해사정사	-11.4616
190	-11.4616
▁마음의	-11.4617
%7	-11.4619
▁앤	-11.4619
플레	-11.462
▁업무에	-11.462
▁고맙습니다	-11.4621
▁알려져	-11.4621
지원금	-11.4623
률이	-11.4624
vina	-11.4624
등록번호	-11.4624
par	-11.4624
▁한다면	-11.4625
279	-11.4625
연구사	-11.4627
영문법	-11.4628
쳤습니다	-11.4628
테솔	-11.4628
▁안양	-11.4631
▁지금부터	-11.4633
▁제작을	-11.4633
▁꽤	-11.4635
재현	-11.4635
바퀴	-11.4635
안산	-11.4637
campaign	-11.4637
ᅮᅮ	-11.4637
▁한눈에	-11.4638
▁열역학	-11.4638
▁고도	-11.4638
▁지방자치단체	-11.4638
▁시위	-11.4638
▁나쁜	-11.4639
▁지음	-11.4639
럭	-11.4639
▁정부와	-11.4639
진우	-11.4643
▁물류관리사	-11.4643
▁최종합격	-11.4644
곧	-11.4645
750	-11.4645
▁수상한	-11.4646
피부과	-11.4647
▁99	-11.4649
수련	-11.4651
bur	-11.4652
▁케이스	-11.4652
▁능력이	-11.4652
저도	-11.4655
진화	-11.4656
▁이처럼	-11.4657
기술자	-11.4658
▁것만	-11.4658
dam	-11.466
든지	-11.466
▁노력이	-11.466
에어컨	-11.4661
▁google	-11.4662
▁two	-11.4662
▁아울러	-11.4662
규정	-11.4663
▁연휴	-11.4664
▁자폐증	-11.4664
▁하나님의	-11.4665
▁천천히	-11.4665
속에서	-11.4667
▁기내	-11.4671
행렬	-11.4672
▁act	-11.4672
%98%	-11.4672
▁학습에	-11.4672
허브	-11.4673
▁회사는	-11.4676
티스토리	-11.4676
커뮤니케이션	-11.4676
▁유튜브에서	-11.4677
▁살려	-11.4679
▁수험생의	-11.4681
port	-11.4682
리포터	-11.4682
▁모르고	-11.4683
셉	-11.4683
아랍어	-11.4683
▁가볍게	-11.4683
김해	-11.4684
▁시니어	-11.4684
▁해당하는	-11.4685
%95%	-11.4685
▁놀러	-11.4687
▁집합	-11.4688
▁분산	-11.469
▁시장이	-11.4691
▁양성을	-11.4692
미세먼지	-11.4692
엉	-11.4692
표시	-11.4694
▁동영상으로	-11.4694
▁정리한	-11.4694
▁강의에	-11.4694
▁hot	-11.4696
안과	-11.4697
08.	-11.4697
여수	-11.4697
▁실험실	-11.4698
▁증빙자료	-11.4698
리가	-11.4701
공채	-11.4701
스럽게	-11.4703
수급	-11.4704
▁떨어져	-11.4704
ture	-11.4705
▁치과위생사	-11.4707
복음	-11.4707
▁농도	-11.4708
감성	-11.471
▁조선생	-11.4711
▁택	-11.4712
▁homepage	-11.4712
▁기계설계	-11.4713
한국인	-11.4713
▁ᅲ	-11.4713
2:00	-11.4714
▁다음에	-11.4715
use	-11.4715
성공취업	-11.4716
남동	-11.4716
▁소아	-11.4717
-50	-11.4718
▁농림축산식품부	-11.4719
▁차별화된	-11.4719
나갈	-11.4719
▁메시지를	-11.4721
사에	-11.4721
법은	-11.4723
테슬라	-11.4724
▁세상에서	-11.4726
1~2	-11.4728
chinese	-11.4729
자세	-11.4729
▁제약회사	-11.4729
문화의	-11.473
▁임상시험	-11.4733
▁연결해	-11.4733
busan	-11.4734
▁요점정리	-11.4734
서영	-11.4734
▁알리기	-11.4734
상담소	-11.4735
학당	-11.4735
▁거점	-11.4736
▁편성	-11.4737
녹화	-11.4739
▁날짜	-11.4741
▁정당	-11.4742
폭탄	-11.4742
▁클럽	-11.4742
회계사	-11.4743
space	-11.4743
결제	-11.4744
똥	-11.4745
▁창고	-11.4745
▁아이패드	-11.4747
영상촬영	-11.4748
wer	-11.4749
▁후원계좌	-11.4749
tive	-11.4749
▁화이트	-11.475
▁특수학교	-11.475
▁여러분들께	-11.4751
동맹	-11.4751
▁세계사	-11.4754
오케스트라	-11.4756
tin	-11.4756
▁post	-11.4756
▁발달장애	-11.4757
▁무관	-11.4758
eos	-11.4759
▁web	-11.4759
▁house	-11.4759
단장	-11.476
헬로비전	-11.476
여러분들의	-11.4761
저작자	-11.4761
▁production	-11.4762
인터파크	-11.4762
▁아프	-11.4764
▁학생을	-11.4772
알바	-11.4773
합창단	-11.4773
텐데	-11.4774
씬	-11.4775
▁당첨자	-11.4776
kyobo	-11.4777
▁영어를	-11.478
▁제작자	-11.4781
여객	-11.4781
활성화	-11.4781
ish	-11.4781
▁콜	-11.4781
▁쏙쏙	-11.4782
유니스터디	-11.4782
올레	-11.4783
▁전원주택	-11.4784
pat	-11.4784
▁why	-11.4784
백과	-11.4785
드릴게요	-11.4786
▁과학의	-11.4786
▁성형	-11.4787
년간의	-11.4787
실제로	-11.4787
아름	-11.4789
▁신발	-11.479
▁줌	-11.4791
▁판매하는	-11.4792
워크넷	-11.4792
das	-11.4793
▁원자	-11.4794
▁경제를	-11.4794
gram	-11.4794
주식회사	-11.4796
▁채취	-11.4797
분과	-11.4798
▁석탄	-11.4799
▁보드	-11.4799
▁years	-11.4801
케미칼	-11.4802
나래	-11.4803
년만에	-11.4803
▁한식	-11.4803
동사	-11.4804
coffee	-11.4806
샌	-11.4806
▁호기심	-11.4807
▁나가는	-11.4811
hub	-11.4812
▁arts	-11.4812
으로도	-11.4812
men	-11.4813
▁지능형	-11.4813
▁안심	-11.4813
▁진실을	-11.4816
▁계약을	-11.4817
군이	-11.4817
▁저와	-11.4818
플라스틱	-11.4818
수학은	-11.4818
▁than	-11.4819
▁적중	-11.4819
▁오래된	-11.4821
▁잠수	-11.4821
ᅮ	-11.4822
7001	-11.4823
-2020	-11.4823
▁인정받을	-11.4824
▁원가	-11.4827
editor	-11.4829
재훈	-11.4829
▁하나씩	-11.483
▁희생	-11.483
126	-11.4834
=01	-11.4835
roll	-11.4837
헬스	-11.4837
current	-11.4838
지표	-11.4838
▁감정평가사	-11.4839
▁박정	-11.4841
▁하던	-11.4842
sure	-11.4843
▁이야기는	-11.4844
inner	-11.4845
바이러스	-11.4847
▁떨	-11.4847
관에서	-11.485
▁떨어지	-11.485
▁명장	-11.4851
주경야독	-11.4852
▁제공해	-11.4852
▁단계별	-11.4852
뉴욕	-11.4853
패널	-11.4853
▁코로나로	-11.4853
▁감기	-11.4853
신의	-11.4854
▁영업이익	-11.4854
disable	-11.4854
▁합주	-11.4854
셨어요	-11.4855
▁통찰	-11.4855
▁version	-11.4855
▁자리에서	-11.4855
kids	-11.4856
장벽	-11.4856
히든	-11.4856
▁선장	-11.4857
▁필요하다고	-11.4859
▁위대한	-11.4859
중독	-11.4859
▁solution	-11.4859
프라	-11.4861
▁2002	-11.4862
▁그릇	-11.4863
파트너스	-11.4863
▁교과목	-11.4866
▁솔직한	-11.4867
gold	-11.4869
▁사무총장	-11.4869
내일	-11.4869
날씨	-11.4873
▁춘	-11.4874
walk	-11.4876
정부가	-11.4876
▁voice	-11.4878
▁int	-11.4879
▁south	-11.488
▁교수와	-11.488
백화점	-11.488
▁수혜주	-11.4881
drama	-11.4881
요인	-11.4883
오디오	-11.4885
▁못했습니다	-11.4887
편의	-11.4887
▁원격교육기관	-11.4887
라벨	-11.4889
▁연고티비	-11.4889
좋아	-11.4889
~11	-11.4892
▁훈련을	-11.4893
▁자동으로	-11.4894
자격증은	-11.4894
▁절차를	-11.4894
▁시험장	-11.4896
▁이창	-11.4898
▁따라하기	-11.4899
▁방문하기	-11.49
▁나타난	-11.49
콘크리트	-11.49
성형외과	-11.49
를위한	-11.49
하시려면	-11.4901
▁가질	-11.4902
▁상태를	-11.4903
▁탁	-11.4904
상장	-11.4904
재개발	-11.4905
만드는	-11.4906
▁비교해	-11.4907
audio	-11.4907
케이크	-11.4909
▁다가가	-11.491
워킹	-11.4913
_4	-11.4913
▁요구하는	-11.4914
▁말할	-11.4915
▁다양성	-11.4915
었다고	-11.4915
▁산업용	-11.4915
지입	-11.4917
▁fta	-11.4919
▁찬	-11.4919
상상	-11.4919
스의	-11.4919
▁챌린지	-11.492
▁방향성	-11.492
▁이력서	-11.4921
▁원예	-11.4921
▁원에	-11.4922
▁교육은	-11.4923
▁서초구	-11.4926
-[	-11.4926
▁성공을	-11.4929
기계공학	-11.4929
▁조현	-11.4929
▁pattern	-11.4929
▁종로	-11.4929
▁샘	-11.493
▁시민단체	-11.493
킷	-11.4931
노량진	-11.4931
▁징계	-11.4932
▁지원합니다	-11.4932
▁건국대	-11.4933
부모	-11.4934
클라	-11.4934
▁전화번호	-11.4935
기후	-11.4935
▁창의력	-11.4936
아요	-11.4937
▁눈을	-11.4938
▁충분	-11.4938
▁굳	-11.4938
leader	-11.4941
▁시장은	-11.4942
▁시간과	-11.4944
신용분석사	-11.4947
▁elsewhere	-11.4947
▁저작권자	-11.4948
한식조리기능사	-11.4949
인상	-11.4952
▁스페인	-11.4953
▁070	-11.4955
세금	-11.4955
강원	-11.4956
렵	-11.4957
▁괜찮	-11.4958
특징	-11.4961
화랑	-11.4961
▁다니는	-11.4961
▁박준	-11.4962
▁꿈의	-11.4962
tving	-11.4963
적용	-11.4963
▁작업치료	-11.4964
▁전직	-11.4964
asset	-11.4968
yeong	-11.4969
▁뛰	-11.4969
은정	-11.497
joins	-11.497
nal	-11.4971
327	-11.4971
▁언론사	-11.4972
완료	-11.4973
▁자랑하는	-11.4974
235	-11.4974
신도시	-11.4975
하셨습니다	-11.4976
▁변리사	-11.4976
메이트	-11.4976
▁끊임없이	-11.4978
▁취약	-11.498
▁공주	-11.498
▁간접	-11.498
▁달걀	-11.4981
캐나다	-11.4981
▁insta	-11.4981
people	-11.4981
슬기로운	-11.4982
▁모니터	-11.4982
기고	-11.4983
▁전해졌습니다	-11.4983
-13	-11.4984
▁추천드립니다	-11.4985
▁700	-11.4985
▁공연을	-11.4988
▁김세	-11.499
▁인삼	-11.4991
시설을	-11.4993
magic	-11.4994
▁파이썬	-11.4995
▁극단	-11.4995
ase	-11.4996
▁control	-11.4996
한양대	-11.4997
▁합격하는	-11.4997
▁year	-11.4997
▁지속가능한	-11.4997
▁때문이다	-11.4999
▁부대	-11.4999
공인중개사전망	-11.5001
▁팝송	-11.5001
우석	-11.5001
됐는데	-11.5002
됐는데요	-11.5002
합기도	-11.5003
▁성공적으로	-11.5003
문화를	-11.5004
▁의거	-11.5005
사관	-11.5006
idea	-11.5006
▁이진	-11.5008
speaker	-11.5008
▁진행하였습니다	-11.5009
▁물어	-11.5009
논리	-11.5009
영진닷컴	-11.501
▁당부	-11.5011
▁인정한	-11.5011
face	-11.5012
▁가치가	-11.5012
vol	-11.5012
▁살짝	-11.5012
▁제보하기홈페이지	-11.5012
▁리모델링	-11.5013
pos	-11.5013
▁임플란트	-11.5014
▁구멍	-11.5015
▁성균관대학교	-11.5015
▁경영학과	-11.5017
자신만의	-11.5017
sem	-11.5017
▁혐의를	-11.5018
▁수목	-11.5019
▁과정이	-11.502
5000	-11.502
▁요건	-11.5021
▁에너지를	-11.5021
주영	-11.5021
2_	-11.5024
욕실	-11.5024
▁동아시아	-11.5025
02-398-4409	-11.5026
▁안산	-11.5026
경보	-11.5028
▁거대한	-11.5029
hak	-11.503
그레	-11.503
바리스타	-11.5031
선반	-11.5031
▁이준	-11.5032
ris	-11.5032
수성	-11.5033
make	-11.5034
▁혜	-11.5034
텐데요	-11.5034
▁전역	-11.5035
공포	-11.5037
▁비트코인	-11.504
oil	-11.504
기억	-11.5041
▁매물	-11.5042
bensound	-11.5043
▁신성	-11.5043
limit	-11.5044
cap	-11.5044
▁홍대	-11.5044
▁때도	-11.5044
열공하셔	-11.5045
▁브라질	-11.5045
▁이젠	-11.5046
뭐	-11.5047
리더십	-11.5048
ada	-11.505
vis	-11.5052
하다보니	-11.5054
하트	-11.5054
▁ir	-11.5054
ᄏᄏ	-11.5055
▁san	-11.5055
▁상영	-11.5056
▁옷을	-11.5056
봤어요	-11.5057
▁전체를	-11.5057
▁필리핀	-11.5057
▁놀랄	-11.5058
▁students	-11.5058
▁진로상담	-11.5059
▁부분들	-11.506
곳에서	-11.506
▁별도의	-11.5061
▁위험물	-11.5061
취뽀	-11.5061
member	-11.5061
스펙	-11.5061
계속	-11.5062
미리	-11.5063
▁기말고사	-11.5063
클린	-11.5063
▁해제	-11.5063
편성정보	-11.5063
▁아이를	-11.5064
▁금리	-11.5069
팀은	-11.5069
6-1	-11.5069
dol	-11.507
▁적합	-11.5071
▁신한	-11.5072
인쇄	-11.5072
달라고	-11.5073
ama	-11.5073
▁포스터	-11.5074
edukang	-11.5075
▁dmb	-11.5075
▁바꿀	-11.5075
시세	-11.5075
▁전문가들의	-11.5076
▁날이	-11.5077
▁방치	-11.5077
교육연구소	-11.5079
tutorial	-11.508
시나리오	-11.508
국비지원	-11.508
▁introduction	-11.5083
▁어려움이	-11.5083
▁자제	-11.5084
▁트렌드를	-11.5087
▁위기를	-11.5087
linkedin	-11.5089
▁전산세무회계	-11.509
운용	-11.509
칩니다	-11.509
prod	-11.509
▁목재	-11.5091
기독	-11.5093
댄스스포츠	-11.5093
▁의원은	-11.5094
▁str	-11.5095
▁create	-11.5098
▁인간관계	-11.5098
국민은행	-11.5099
▁투자정보	-11.5099
sto	-11.51
▁산이	-11.5102
▁photoshop	-11.5103
▁하니	-11.5103
▁양산	-11.5104
▁휴대전화	-11.5105
▁데뷔	-11.5106
▁입국	-11.5106
마산	-11.5106
▁과정과	-11.5107
공인중개사시험과목	-11.5108
▁후원금	-11.5108
▁보내세요	-11.5109
▁묻는	-11.511
검도	-11.511
베리	-11.5111
▁추락	-11.5111
표를	-11.5111
▁인사말	-11.5112
져야	-11.5113
아이디어	-11.5113
▁fair	-11.5116
▁반이	-11.5117
한의대	-11.5117
▁홍보영상입니다	-11.5119
▁이용자	-11.5121
▁쟁점	-11.5122
true	-11.5122
▁달라진	-11.5122
▁md	-11.5122
라서	-11.5123
▁죄	-11.5123
▁프로듀서	-11.5123
▁카카오스토리	-11.5124
살롱	-11.5124
▁여가	-11.5124
▁eye	-11.5125
▁영향력	-11.5125
▁hy	-11.5126
▁돌아오	-11.5126
▁베이	-11.5127
▁박스	-11.5127
▁오고	-11.5128
▁주식시장	-11.5129
▁한국과	-11.513
▁참여를	-11.5131
금속공예	-11.5131
파트너	-11.5135
▁증가하고	-11.5135
껏	-11.5136
관측	-11.5136
▁전시장	-11.5136
▁입찰	-11.5136
보아요	-11.5137
특성화고	-11.5139
▁건국대학교	-11.514
▁의장	-11.514
▁방어	-11.514
크로스	-11.514
ball	-11.5142
생의	-11.5143
차시험	-11.5143
▁성원	-11.5143
군사	-11.5144
▁곳으로	-11.5145
프리미엄	-11.5146
▁방향으로	-11.5147
▁자신을	-11.5148
▁활발	-11.5148
▁long	-11.5149
ore	-11.515
▁신뢰성	-11.5152
▁중독	-11.5152
▁공인모	-11.5154
버려	-11.5155
▁학부	-11.5156
666	-11.5157
▁답안	-11.5157
페인트	-11.5157
▁절약	-11.516
▁자료입니다	-11.516
상세한	-11.516
▁반갑습니다	-11.5161
ave	-11.5163
도시재생	-11.5163
▁사이트에서	-11.5165
랐	-11.5167
look	-11.5167
▁개봉	-11.5167
계약서	-11.5167
ized	-11.5168
횟	-11.5169
▁give	-11.5169
▁제공할	-11.517
하시거나	-11.517
▁진행될	-11.5171
▁밖	-11.5172
셀러	-11.5172
▁레저	-11.5172
당시	-11.5172
등급의	-11.5173
bus	-11.5173
▁다녀	-11.5174
공기	-11.5175
637	-11.5175
ich	-11.5175
▁해보았습니다	-11.5176
▁모션그래픽	-11.5177
▁완전정복	-11.5179
그렇다면	-11.5179
well	-11.518
시장에서	-11.518
디아	-11.5182
▁경진대회	-11.5182
스파	-11.5182
zip	-11.5183
▁김준	-11.5183
▁찍는	-11.5184
한국관광대학교	-11.5185
▁객실	-11.5186
천연	-11.5187
농업기술센터	-11.5188
▁such	-11.5188
고고학	-11.519
▁down	-11.5193
▁초과	-11.5193
문명	-11.5194
startup	-11.5195
캐릭터	-11.5195
▁건강하게	-11.5196
뢰	-11.5197
열린	-11.5197
▁저희는	-11.5197
파괴	-11.5198
치즈	-11.5199
힙	-11.52
성우	-11.5201
쎈	-11.5201
더빙	-11.5202
이하	-11.5203
튀	-11.5204
약국	-11.5205
경쟁력	-11.5206
안양	-11.5208
▁학습을	-11.5208
▁연구하는	-11.5208
▁문자로	-11.5209
▁하시길	-11.5213
두고	-11.5213
고수	-11.5214
▁전자공학	-11.5214
~?	-11.5215
▁bu	-11.5217
주변	-11.5217
▁넘어서	-11.5219
현우	-11.5219
▁시원하게	-11.522
자산운용	-11.522
▁선착순	-11.5221
▁ke	-11.5222
▁이번엔	-11.5222
한국전력공사	-11.5223
!!!!!	-11.5224
오르	-11.5224
▁ten	-11.5225
motion	-11.5226
제안	-11.5226
▁책임연구원	-11.5227
수도권	-11.5227
206	-11.5228
낮	-11.5229
▁got	-11.5229
메가스터디	-11.5229
1-5	-11.5231
▁부당	-11.5231
▁heart	-11.5232
▁재밌고	-11.5234
rate	-11.5234
되자	-11.5234
▁종목의	-11.5236
▁소방설비산업기사	-11.5237
card	-11.5238
▁요가	-11.5238
타일	-11.524
▁수험생을	-11.5242
zen	-11.5242
께서는	-11.5242
환경을	-11.5242
▁바이어	-11.5243
▁빗	-11.5243
yv	-11.5244
식품의약품안전처	-11.5246
▁연습을	-11.5246
멤버십	-11.5246
만원대	-11.5246
▁초등학생	-11.5248
전시관	-11.5248
github	-11.525
▁practice	-11.525
예술의전당	-11.525
▁노래를	-11.5251
▁아래와	-11.5252
▁자발적	-11.5256
▁대피	-11.5257
▁56	-11.5257
근육	-11.5257
시각	-11.5257
▁멀	-11.5258
물리치료	-11.5259
▁무역영어	-11.5261
▁인벤터	-11.5262
▁재현	-11.5263
▁세법	-11.5263
▁강하게	-11.5264
iso	-11.5264
숭실대	-11.5264
▁알파	-11.5265
▁국토부	-11.5265
cut	-11.5266
굴삭기	-11.5266
▁꾸욱	-11.5268
주일	-11.5268
▁찾아라	-11.527
▁인하여	-11.527
▁이름으로	-11.5271
▁신속하게	-11.5271
까지는	-11.5272
시나요	-11.5272
예상	-11.5273
지부	-11.5273
246	-11.5273
▁펴	-11.5279
▁개최했습니다	-11.528
나마	-11.528
컴활	-11.5281
▁사회적기업	-11.5282
▁부활	-11.5282
에이치엘비	-11.5282
▁교육과학기술부	-11.5282
▁별로	-11.5283
▁들어갔습니다	-11.5284
▁알지	-11.5284
▁사업화	-11.5285
공인중개사시험일정	-11.5285
als	-11.5287
▁모습입니다	-11.5289
▁현재는	-11.5289
렇	-11.529
스킬	-11.5291
어제	-11.5291
▁말해	-11.5292
채널에	-11.5293
보려고	-11.5294
dog	-11.5295
100%	-11.5298
▁보여드리	-11.5298
진학	-11.53
▁맞춘	-11.5301
이익	-11.5301
8,000	-11.5302
▁aws	-11.5303
ᄏᄏᄏ	-11.5303
▁않았던	-11.5304
▁막막	-11.5304
▁주목받고	-11.5304
▁바라보	-11.5304
▁발표자료	-11.5305
tea	-11.5309
발표회	-11.531
▁줄이기	-11.531
용기	-11.5311
분들께서	-11.5312
▁산림청	-11.5312
터뷰	-11.5313
소믈리에	-11.5313
법으로	-11.5313
봉사	-11.5313
▁실험을	-11.5314
▁와이	-11.5314
▁come	-11.5314
▁선임연구위원	-11.5315
650	-11.5317
▁미얀마	-11.5319
▁개인적으로	-11.5319
▁오케스트라	-11.5319
copy	-11.532
김정	-11.532
▁엉	-11.5321
▁조달	-11.5323
▁대비하기	-11.5323
프레스	-11.5323
골든	-11.5324
▁봅시다	-11.5324
010-4	-11.5326
셨죠	-11.5326
와우	-11.5329
겹	-11.533
▁mac	-11.533
▁02-2113-6000	-11.5331
조리사	-11.5331
007	-11.5332
▁market	-11.5333
▁적발됐습니다	-11.5333
▁고르는	-11.5334
청구	-11.5334
▁college	-11.5335
행정법	-11.5337
▁희	-11.5338
위는	-11.5341
주식초보	-11.5342
제국	-11.5343
▁끓	-11.5344
과거	-11.5346
▁나타나	-11.5346
▁전투기	-11.5346
▁제공됩니다	-11.5347
▁권장	-11.5347
aftertherain	-11.5347
▁기대합니다	-11.5348
렉스	-11.5349
▁advanced	-11.5349
▁운동생리학	-11.535
▁근처	-11.535
...?	-11.5351
▁감안	-11.5352
but	-11.5352
wwe	-11.5353
장례	-11.5353
****	-11.5355
▁생일	-11.5355
▁(2020.	-11.5356
▁기념식	-11.5357
/35	-11.536
비행기	-11.5361
헬로	-11.5362
▁영어공부	-11.5362
관리법	-11.5363
신라	-11.5363
▁농민	-11.5364
자율주행	-11.5364
▁특성화	-11.5364
▁관절	-11.5364
지역의	-11.5364
▁보람	-11.5365
▁낮아	-11.5367
▁(20	-11.5368
▁오픈채팅	-11.537
품질관리	-11.5372
▁키즈	-11.5372
믹	-11.5373
hye	-11.5374
▁해체	-11.5378
원료	-11.5379
▁드리고자	-11.538
▁양질의	-11.538
강의특징	-11.5381
광화문	-11.5381
▁알아보았습니다	-11.5382
손해보험	-11.5383
▁하죠	-11.5384
nail	-11.5385
▁together	-11.5386
라틴	-11.5387
▁대변인	-11.5387
▁이병	-11.5387
▁구미	-11.5389
▁여건	-11.5389
▁평소에	-11.5389
질병	-11.5393
9&	-11.5394
하시오	-11.5394
▁손으로	-11.5395
cer	-11.5395
▁언박싱	-11.5395
▁곰	-11.5396
필드	-11.5396
시장의	-11.5396
3-3	-11.5397
igshid	-11.5397
soqxqq	-11.5397
흠	-11.5397
연극영화과	-11.5397
팟빵	-11.5398
한우	-11.5398
▁전부터	-11.5401
런트	-11.5402
결혼	-11.5402
▁먹어	-11.5404
▁일반적인	-11.5404
amp	-11.5404
▁중점	-11.5405
▁선고	-11.5407
▁paper	-11.5408
(8	-11.5409
▁수료하면	-11.541
▁필요할	-11.541
레시피	-11.5414
▁point	-11.5416
인력개발원	-11.5416
푸른	-11.5416
▁김주	-11.5416
▁실질적인	-11.5419
미숙	-11.5419
▁office	-11.542
보통	-11.542
▁machine	-11.542
▁서포터즈	-11.5422
▁승인된	-11.5422
센터는	-11.5423
은혜	-11.5423
수영장	-11.5424
gas	-11.5424
▁이들이	-11.5424
▁소방관	-11.5424
nia	-11.5426
▁작사	-11.5426
기획사	-11.5427
▁이루어지는	-11.5429
롭게	-11.543
▁권력	-11.543
bank	-11.5431
윌비스	-11.5431
자치	-11.5433
▁personal	-11.5433
▁thanks	-11.5433
shot	-11.5434
▁있나	-11.5434
rich	-11.5435
캠핑카	-11.5436
▁(4	-11.5437
평생	-11.5438
▁상상력	-11.5439
quar	-11.5439
▁원문보기	-11.544
▁통보	-11.5445
예상문제	-11.5445
여고	-11.5446
잭	-11.5446
태평양	-11.5446
▁유익하셨다면	-11.5446
▁meet	-11.5447
▁알려드릴게요	-11.5447
▁올렸	-11.5447
▁한국에	-11.5447
-01-	-11.5449
▁rela	-11.545
▁디렉터	-11.5452
수면	-11.5452
▁[4	-11.5453
ations	-11.5454
환경기능사	-11.5456
▁빛을	-11.5459
포함	-11.5459
▁break	-11.5459
▁방과후	-11.5461
▁사회를	-11.5461
프로듀스	-11.5463
봇	-11.5464
정환	-11.5464
기아차	-11.5464
트랙	-11.5464
▁학우	-11.5464
▁선임연구원	-11.5465
lip	-11.5467
▁물리적	-11.5468
▁머물	-11.5468
▁개발했습니다	-11.547
▁이걸	-11.547
▁심리상담	-11.5471
▁세라믹	-11.5472
열역학	-11.5472
▁부동산세법	-11.5474
쿼	-11.5476
▁치과의사	-11.5477
백석	-11.5478
▁했고	-11.5478
▁앞장서	-11.5479
▁만듭니다	-11.548
▁디테일	-11.548
국토교통부	-11.5482
▁코스피	-11.5483
택배	-11.5484
▁한국전력	-11.5488
시간을	-11.5489
)5.	-11.5489
▁한국화	-11.549
▁기술개발	-11.5491
▁건너	-11.5492
자율	-11.5492
▁역할과	-11.5493
inbs	-11.5493
▁보증	-11.5494
문의는	-11.5494
▁사망자	-11.5495
▁의대	-11.5496
▁꿀팁을	-11.5498
공대	-11.5499
필라테스	-11.55
▁간편하게	-11.55
▁과학자	-11.5501
======	-11.5501
이제는	-11.5501
▁실체	-11.5504
▁전공자	-11.5504
▁주인공은	-11.5505
▁낳	-11.5505
cover	-11.5505
종의	-11.5506
▁갔	-11.5508
▁도용	-11.5509
▁하나금융투자	-11.551
▁space	-11.5511
셜	-11.5512
▁알바	-11.5512
ceramic	-11.5512
둑	-11.5513
관찰	-11.5513
▁하나가	-11.5515
▁51	-11.5515
▁원인과	-11.5516
오토캐드	-11.5517
전파	-11.552
▁과학기술정보통신부	-11.552
▁산업에	-11.5521
337	-11.5522
oda	-11.5523
01&	-11.5524
▁직후	-11.5525
▁여론	-11.5527
▁고분자	-11.5527
oun	-11.5528
▁karud	-11.5529
▁막을	-11.5529
살이	-11.553
▁해안	-11.5532
▁발간	-11.5532
▁않지만	-11.5533
▁진심	-11.5534
▁건강기능식품	-11.5534
▁ip	-11.5535
▁직원들의	-11.5535
▁표현하는	-11.5536
▁만들었	-11.5536
via	-11.5538
분쟁	-11.5539
009	-11.554
▁총무	-11.554
▁bio	-11.5541
▁무도	-11.5543
▁질문이	-11.5543
▁네이버블로그	-11.5545
▁대결	-11.5545
치과병원	-11.5546
discord	-11.5546
▁내부통제기준을	-11.5546
▁사경인	-11.5546
찬양	-11.5546
멘탈	-11.5547
기본법	-11.5548
▁법을	-11.5548
▁지식재산	-11.5549
▁변화하는	-11.5549
보리	-11.5549
▁알려주세요	-11.555
모듈	-11.5552
네이버블로그	-11.5552
▁감자	-11.5553
변수	-11.5554
▁독도	-11.5555
▁3333	-11.5555
▁건강관리	-11.5555
▁사례가	-11.5556
진주	-11.5556
▁박사님	-11.5557
▁넘어가	-11.5559
tax	-11.5561
클레	-11.5561
▁ku	-11.5561
▁기준이	-11.5563
반복	-11.5563
▁알리고	-11.5563
러운	-11.5565
dom	-11.5565
▁기술인	-11.5565
▁착공	-11.5565
▁곳을	-11.5565
▁만들어서	-11.5567
▁확인하는	-11.5568
동성	-11.5569
▁기초적인	-11.5569
▁시기에	-11.5569
민영	-11.5569
▁빌딩	-11.557
그라	-11.557
icon	-11.5571
▁동문	-11.5573
▁vol	-11.5576
▁산업을	-11.5576
▁가르	-11.5578
재료역학	-11.5579
▁빨라	-11.558
▁회사입니다	-11.5582
special	-11.5586
▁도모	-11.5587
5-6	-11.5587
▁버리	-11.5588
실기시험	-11.5588
snu	-11.5594
▁방해	-11.5594
▁이슈를	-11.5595
에듀강닷컴	-11.5596
나게	-11.5596
▁소리가	-11.5598
은경	-11.5598
어학원	-11.5599
▁오산	-11.56
해군	-11.56
천원	-11.56
고려	-11.56
국민건강보험공단	-11.5601
다들	-11.5602
서버	-11.5602
▁마늘	-11.5603
▁만나고	-11.5603
라임	-11.5604
리조트	-11.5605
▁줍니다	-11.5606
▁head	-11.561
중개사법	-11.5611
past	-11.5613
ries	-11.5613
뇌졸중	-11.5613
▁군인	-11.5614
도시철도	-11.5614
280	-11.5614
▁사무소	-11.5615
▁소녀	-11.5615
▁배려	-11.5615
드렸습니다	-11.5616
army	-11.5617
▁속성	-11.5618
▁아리랑	-11.562
영향	-11.5621
조종사	-11.5621
가게	-11.5621
▁좋았	-11.5623
▁53	-11.5624
▁콜라보	-11.5624
제주도	-11.5625
▁해설을	-11.5626
매입	-11.5627
2002	-11.5628
▁기계설계산업기사	-11.5628
actors	-11.5628
대방열림고시학원	-11.5629
▁훼손	-11.5629
}{	-11.563
차길영	-11.563
▁가족들	-11.5631
해왔습니다	-11.5631
chung	-11.5631
▁감사의	-11.5632
네일아트	-11.5632
▁지닌	-11.5632
▁드는	-11.5633
스카이	-11.5634
산지	-11.5635
회생	-11.5636
농업기술원	-11.5637
▁case	-11.5638
▁환경영향평가	-11.5639
단계로	-11.564
▁됐다	-11.564
회사의	-11.5641
▁지방직	-11.5643
▁복구	-11.5643
kyo	-11.5643
후원계좌	-11.5645
plc	-11.5645
▁중요성을	-11.5646
▁깜짝	-11.5646
▁국민대	-11.5647
▁멤버	-11.5647
중고차	-11.5648
한국무용	-11.5648
▁직업정보	-11.5652
▁먹방	-11.5652
인성	-11.5652
rang	-11.5653
타이어	-11.5654
▁선교사	-11.5655
▁붙여	-11.5655
▁중앙대학교	-11.5655
[1	-11.5656
마음을	-11.5657
ugh	-11.5658
▁자바	-11.5658
한글자막	-11.5659
농구	-11.5659
▁형상	-11.5659
▁채워	-11.566
▁140	-11.566
알아	-11.566
arts	-11.5662
▁다수의	-11.5662
밸런스	-11.5663
▁종사	-11.5663
▁세탁	-11.5664
어플	-11.5664
▁터널	-11.5664
▁여러분들에게	-11.5665
rot	-11.5665
.2015	-11.5666
koica	-11.567
답게	-11.567
상호	-11.567
▁대로	-11.5671
▁쉬워	-11.5671
french	-11.5673
▁공유해	-11.5673
back	-11.5673
실천	-11.5679
생태계	-11.568
햄	-11.568
bridge	-11.568
▁주장했습니다	-11.5681
출력	-11.5681
▁총론	-11.5682
▁stu	-11.5684
▁수행하는	-11.5685
mark	-11.5685
▁언어를	-11.5686
▁용산	-11.5686
▁훌륭한	-11.5686
민정	-11.5687
▁포토	-11.5687
▁파트너스	-11.5687
▁사건을	-11.5687
~2013	-11.5687
것도	-11.5688
ace	-11.5689
쓰레기	-11.569
▁생겼	-11.569
▁최우수	-11.569
셀트리온	-11.569
화상	-11.5692
cjz	-11.5694
▁daily	-11.5695
료를	-11.5695
일러스트	-11.5696
2217	-11.5696
안은	-11.5697
▁oh	-11.5697
▁공부해	-11.5697
▁꼼꼼한	-11.5697
▁중에서도	-11.5699
▁상권	-11.57
▁들어와	-11.5701
▁were	-11.5703
소방서	-11.5704
작업을	-11.5705
▁어선	-11.5705
.2020	-11.5705
▁환경과	-11.5706
▁수단	-11.5707
아름다운	-11.5708
아이티	-11.5709
▁싱가포르	-11.5709
▁존중	-11.5709
▁very	-11.5709
▁실생활	-11.5712
합격자	-11.5712
지니	-11.5713
맑	-11.5713
특성	-11.5714
▁brand	-11.5714
믹싱	-11.5714
▁전산응용기계제도기능사	-11.5716
멀	-11.5717
▁시간으로	-11.5717
▁문헌	-11.5717
▁상태입니다	-11.5717
ebsculture	-11.5717
mcode	-11.5717
▁얻는	-11.5717
▁전문가들은	-11.5718
▁임명	-11.5718
보라	-11.5718
▁800	-11.5718
중략	-11.5719
▁아산	-11.572
▁아이들을	-11.572
▁전망은	-11.5722
빌라	-11.5722
▁철수	-11.5725
▁평택	-11.5725
▁싶은데	-11.5726
ash	-11.5727
규칙	-11.5727
▁법무사	-11.5729
▁미학	-11.5729
지침	-11.5729
명과	-11.573
▁흥미	-11.573
strategy	-11.5731
▁있기를	-11.5731
▁핵심요약	-11.5732
었지만	-11.5732
▁평면	-11.5733
015	-11.5733
육군	-11.5733
▁서식	-11.5733
▁옵션	-11.5733
되게	-11.5734
▁벨	-11.5735
▁생명을	-11.5735
스톱	-11.5737
▁외우	-11.5738
▁갑질	-11.5738
▁간부	-11.5739
▁유성	-11.574
이면서	-11.5743
1:00	-11.5744
자들을	-11.5744
결국	-11.5746
▁pass	-11.5746
▁예상문제	-11.5747
▁119	-11.5748
뽕	-11.5748
▁간절한	-11.5748
프린트	-11.5748
수능수학	-11.5749
start	-11.575
▁명절	-11.5751
▁오픈채팅방	-11.5751
▁친구들과	-11.5752
-15	-11.5753
시설의	-11.5753
▁촬영을	-11.5754
▁김은	-11.5755
나이트	-11.5758
▁생활체육	-11.5758
▁미세	-11.5758
review	-11.5758
▁거시	-11.5762
떼	-11.5762
고싶은	-11.5763
5&	-11.5763
▁연산	-11.5764
355	-11.5764
▁있었는데	-11.5764
▁어플리케이션	-11.5765
▁방사성	-11.5765
ric	-11.5765
바로합격	-11.5766
순이	-11.5767
▁소믈리에	-11.5767
▁싶어서	-11.5769
화공기사	-11.577
▁주변에	-11.5771
공모	-11.5771
▁모자	-11.5772
▁암호	-11.5772
▁직전	-11.5773
▁플랜트	-11.5774
얼마	-11.5775
▁제천	-11.5775
▁여러분들과	-11.5776
..."]	-11.5776
스텐	-11.5777
일본어회화	-11.5777
9-1	-11.5777
▁종목은	-11.5779
알려	-11.5779
photo	-11.5779
▁fi	-11.578
▁시세	-11.578
좁	-11.5781
매물	-11.5781
▁참여하기	-11.5781
1080	-11.5781
붐	-11.5782
safety	-11.5782
이종	-11.5783
▁보낸	-11.5783
rftm	-11.5783
▁가능해	-11.5783
영양사	-11.5784
▁필터	-11.5785
▁묵	-11.5785
▁software	-11.5789
▁화공	-11.5789
▁땀	-11.5789
테리	-11.5789
▁되고자	-11.579
▁수출입	-11.5791
인치	-11.5791
문예	-11.5791
▁재수생	-11.5794
▁레드	-11.5794
▁재미있고	-11.5794
▁세계적	-11.5795
▁베트남어	-11.5795
▁신화	-11.5795
기술과	-11.5795
164	-11.5796
▁얘기를	-11.5797
관리시스템	-11.5797
▁입장입니다	-11.5798
▁휴가	-11.5798
▁국가의	-11.58
▁cell	-11.5801
▁맡고	-11.5803
남부	-11.5803
dental	-11.5803
hand	-11.5806
▁사업은	-11.5807
하나씩	-11.5807
pic	-11.5808
▁기술적	-11.5809
▁수강할	-11.5809
▁그래프	-11.5809
미용학원	-11.5809
2005	-11.581
▁심의	-11.581
스테이	-11.5811
▁액션	-11.5811
▁제시하고	-11.5813
▁검은	-11.5814
hoon	-11.5814
▁정신건강	-11.5814
목공	-11.5815
▁흥미로운	-11.5816
toy	-11.5817
▁반지	-11.5818
▁정화	-11.5818
연세대학교	-11.5819
▁어서	-11.5819
▁cr	-11.582
hen	-11.5821
kyung	-11.5821
ware	-11.5821
▁공간이	-11.5822
▁중소벤처기업부	-11.5823
드리려고	-11.5825
연구팀은	-11.5826
▁이기	-11.5826
▁유튜브채널	-11.5826
가방	-11.5827
강습	-11.5827
▁내일을	-11.5829
▁little	-11.5829
verse	-11.5829
▁꿈꾸	-11.5829
▁여러분들을	-11.583
합성	-11.583
▁썸네일	-11.5831
셨으면	-11.5831
▁animation	-11.5831
▁축산물	-11.5832
▁제품들	-11.5832
▁협력업체	-11.5832
▁유연	-11.5833
▁도쿄	-11.5833
세일즈	-11.5834
무인	-11.5835
▁달하는	-11.5835
history	-11.5835
▁sta	-11.5836
▁energy	-11.5836
▁최첨단	-11.5836
▁bim	-11.5838
▁기술자	-11.5838
▁gm	-11.5839
▁지친	-11.584
▁주제발표	-11.5841
년치	-11.5841
16.	-11.5844
전화번호	-11.5846
교육문의	-11.5846
/13	-11.5848
▁고객이	-11.5849
▁융복합	-11.5851
▁인력을	-11.5851
스틱	-11.5852
알고	-11.5853
카르	-11.5853
일상브이로그	-11.5855
lum	-11.5855
▁연애	-11.5855
▁식량	-11.5855
▁성장할	-11.5855
▁abacus	-11.5857
▁독점	-11.5858
가량	-11.5859
▁위주의	-11.5862
▁신세계	-11.5862
▁교재구매	-11.5863
▁하는가	-11.5865
동력	-11.5865
▁performance	-11.5865
평소	-11.5866
▁이루어진	-11.5868
lziwke	-11.5868
hygwzg	-11.5868
krluzf	-11.5868
sul	-11.5868
erp	-11.5868
▁심지어	-11.5869
메뉴	-11.5869
▁유통관리사	-11.587
패드	-11.5872
▁법무법인	-11.5872
▁나면	-11.5873
작전	-11.5874
카카오채널	-11.5875
벤처기업	-11.5876
렸던	-11.5877
1~3	-11.5877
지문	-11.5877
▁내용도	-11.5877
brush	-11.5878
시험대비	-11.5879
145	-11.588
▁이상을	-11.5883
산단	-11.5883
▁그럴	-11.5884
닭	-11.5885
업체가	-11.5885
티브로드	-11.5885
▁선도하는	-11.5885
▁알아보	-11.5886
▁학력	-11.5889
▁느낌이	-11.589
큐브	-11.5891
groups	-11.5891
▁품질경영산업기사	-11.5892
상사	-11.5893
▁구조를	-11.5894
▁카이스트	-11.5896
▁남는	-11.5896
▁미칠	-11.5896
사회학	-11.5896
우디	-11.5896
▁보지	-11.5897
ire	-11.5897
환경공단	-11.5898
▁홍성	-11.5899
켈	-11.5902
economy	-11.5902
첼	-11.5902
신재생에너지	-11.5903
천명	-11.5903
정보처리기사	-11.5904
매너	-11.5904
▁공립	-11.5904
▁유익	-11.5905
목포	-11.5905
-30	-11.5905
▁반죽	-11.5906
____________	-11.5906
▁self	-11.5907
oem	-11.5908
▁기술직공무원	-11.5909
▁김혜	-11.5912
etri	-11.5912
냈다	-11.5913
▁책은	-11.5914
▁라이브러리	-11.5915
누르	-11.5915
▁법규	-11.5915
▁고시	-11.5917
분자	-11.5918
▁gene	-11.5918
▁못할	-11.5918
ssi	-11.5918
썩	-11.592
screen	-11.592
▁흐	-11.592
▁분들과	-11.5921
▁명상	-11.5922
▁농지	-11.5923
▁동기부여	-11.5926
▁가려	-11.5929
349	-11.593
ebroadcasting	-11.593
▁수준으로	-11.5931
▁임업	-11.5932
열전	-11.5933
븐	-11.5934
현미경	-11.5935
준영	-11.5935
찜	-11.5937
아서	-11.5938
보건복지부	-11.5938
인프라	-11.5939
▁plan	-11.594
▁맞지	-11.594
=2&	-11.594
필답형	-11.5942
▁신년	-11.5943
▁택시	-11.5946
▁사태로	-11.5946
!^^	-11.5948
사업의	-11.5948
미술치료	-11.5951
▁conference	-11.5953
차필기시험에서	-11.5954
▁zoom	-11.5958
rom	-11.5958
▁name	-11.5959
▁bj	-11.596
▁없기	-11.5961
▁자꾸	-11.5961
필요	-11.5962
비료	-11.5963
▁교구	-11.5964
▁않아서	-11.5964
동호회	-11.5965
▁사항을	-11.5965
수칙	-11.5965
▁둘째	-11.5966
플라이	-11.5966
▁ted	-11.5968
▁기계공학	-11.5969
newstapa	-11.5972
epidemicsound	-11.5972
국방부	-11.5972
▁품종	-11.5972
▁성향	-11.5974
▁정진	-11.5974
▁즐	-11.5976
▁캐스팅	-11.5976
▁#6000	-11.5976
▁고양시	-11.5976
▁학생회	-11.5978
문화관광	-11.5979
알파	-11.5979
440	-11.5979
▁예문사	-11.598
▁대상자	-11.5981
코인	-11.5982
▁배당	-11.5983
주거	-11.5984
탐사	-11.5984
pay	-11.5985
김포	-11.5985
상담전화	-11.5985
▁코엑스	-11.5988
fri	-11.5989
밸브	-11.5989
▁과제를	-11.599
최강	-11.5991
해봤어요	-11.5993
girl	-11.5997
214	-11.5997
셨다면	-11.5999
후보	-11.5999
그러면서	-11.6
▁농촌진흥청	-11.6
▁고객님	-11.6001
▁복용	-11.6001
▁기법을	-11.6002
잘하는법	-11.6002
통제	-11.6003
신다면	-11.6003
▁측면	-11.6004
008	-11.6005
성남	-11.6005
재산	-11.6005
▁희망하는	-11.6006
zsjgt	-11.6006
독학재수	-11.6006
visual	-11.6007
확대	-11.6007
▁첨삭	-11.6007
keyword	-11.6008
▁fo	-11.6008
▁시험준비	-11.6008
▁유체역학	-11.6009
재고	-11.601
▁높다	-11.6011
▁추구하는	-11.6011
▁소문	-11.6011
▁안전하고	-11.6014
평가원	-11.6015
▁참여할	-11.6016
▁평창	-11.6017
▁마친	-11.6018
▁포함하여	-11.6019
▁green	-11.6019
한반도	-11.602
bil	-11.6021
▁different	-11.6021
승마	-11.6021
▁핵심적인	-11.6021
빔	-11.6024
차실기까지	-11.6024
▁잠깐	-11.6024
▁예보	-11.6027
secret	-11.6031
▁award	-11.6031
▁갖게	-11.6032
기출문제집	-11.6033
▁채택	-11.6034
한국항공우주	-11.6036
▁이것은	-11.6038
▁실무자	-11.6039
▁났	-11.6039
띵	-11.604
▁sha	-11.604
테크놀로지	-11.6042
▁민주주의	-11.6042
▁박진	-11.6043
요한	-11.6044
▁국공립	-11.6044
▁---	-11.6045
acc	-11.6046
티켓	-11.6046
▁낚시	-11.6047
협상	-11.6047
▁ji	-11.6048
완전	-11.6048
용인	-11.6049
▁약초	-11.605
▁파워포인트	-11.605
기만	-11.605
▁이루는	-11.6051
▁편안한	-11.6051
▁규명	-11.6053
페이퍼	-11.6053
스텝	-11.6054
▁공룡	-11.6054
▁줄이는	-11.6057
에게도	-11.6057
▁생물학	-11.6059
131	-11.606
▁동물의	-11.6061
▁챙기	-11.6062
sample	-11.6063
?*	-11.6063
▁백제	-11.6064
7-1	-11.6065
ipsi	-11.6066
녹취	-11.6066
에이치	-11.6066
대기환경	-11.6067
▁공단	-11.6069
▁밝은	-11.6071
▁집회	-11.6071
▁프로그램이	-11.6071
▁뒤로	-11.6071
리티	-11.6072
▁가입하기	-11.6075
▁곳곳에	-11.6075
▁기대하고	-11.6075
▁소재로	-11.6076
▁물고기	-11.6077
▁명쾌한	-11.6077
딕	-11.6077
▁victory	-11.6077
251	-11.6078
▁메세지	-11.608
struct	-11.6081
▁전동	-11.6085
▁소수	-11.6087
과외	-11.6088
여명이	-11.6088
...#	-11.6088
자녀	-11.609
랙	-11.609
▁고기	-11.609
▁폭력	-11.6091
▁하드웨어	-11.6091
tec	-11.6091
▁것이고	-11.6093
인형	-11.6093
▁자재	-11.6093
▁점유율	-11.6094
항목	-11.6094
▁돌아왔습니다	-11.6095
▁담아보았습니다	-11.6095
▁짓	-11.6096
175	-11.6097
랜드프로	-11.6097
▁적지	-11.6099
▁건강보험	-11.6099
▁명을	-11.61
실용음악학원	-11.6101
평형	-11.6104
생이	-11.6104
종목상담	-11.6105
▁이론강의	-11.6107
▁명예교수	-11.6107
행성	-11.6108
수질환경산업기사	-11.6109
블로	-11.611
뜰	-11.6111
자치분권	-11.6111
detailview	-11.6111
▁끌고	-11.6113
▁콘텐츠로	-11.6114
▁하시	-11.6115
▁메카	-11.6115
정수	-11.6118
스틸	-11.6119
분해	-11.6121
▁묶	-11.6122
시원	-11.6123
▁대세	-11.6123
▁온라인강의	-11.6123
▁사용될	-11.6128
▁게재	-11.6128
yeo	-11.6129
경우	-11.6129
▁지금도	-11.6129
▁우유	-11.6129
국립암센터	-11.613
▁작전	-11.6131
▁종종	-11.6131
ien	-11.6131
▁걷	-11.6132
드리며	-11.6132
doo	-11.6132
▁세종시	-11.6133
▁브이로그를	-11.6133
오디오북	-11.6134
▁환자들	-11.6136
▁public	-11.6137
▁개최된	-11.6139
답사	-11.614
틸	-11.614
▁만들어지는	-11.6141
현정	-11.6142
▁problem	-11.6143
▁된다는	-11.6143
자산관리사	-11.6146
python	-11.6147
ebsdocumentary	-11.6147
건설안전	-11.6147
대우	-11.6148
제빵	-11.6148
대림대학교	-11.6149
볼게요	-11.6149
원칙	-11.6149
▁폐기	-11.615
▁승진	-11.6152
▁jewelry	-11.6152
▁알아볼	-11.6153
▁시행하는	-11.6153
미학	-11.6154
반주	-11.6155
▁주차장	-11.6156
▁인사를	-11.6157
▁건가요	-11.6157
커리어	-11.6157
▁코로나바이러스	-11.6157
나도	-11.6158
series	-11.6158
fact	-11.6159
5-1	-11.6159
승훈	-11.616
▁회사소개	-11.616
▁흡	-11.616
▁속의	-11.616
▁건축설계	-11.6161
자들에게	-11.6161
▁구술	-11.6162
▁조율	-11.6162
시청자	-11.6162
투기	-11.6163
▁함정	-11.6163
오피스	-11.6163
▁medicine	-11.6165
아카이브	-11.6165
▁특파원	-11.6165
치위생과	-11.6165
healing	-11.6165
연희	-11.6165
▁환상	-11.6165
▁등교	-11.6166
감염	-11.6166
랭킹	-11.6166
▁볼수	-11.6167
간호학과	-11.6168
▁발전과	-11.6168
싱크	-11.6168
▁수행하고	-11.6171
▁바르	-11.6171
리나	-11.6171
▁field	-11.6171
network	-11.6173
▁지향	-11.6173
mus	-11.6175
▁유용	-11.6177
봉사활동	-11.6177
▁개입	-11.6179
▁부각	-11.6179
▁항공정비사	-11.6179
▁기조	-11.6181
혔	-11.6181
사이다	-11.6182
특구	-11.6183
▁있으나	-11.6184
굿모닝	-11.6184
▁한약재	-11.6184
▁기호	-11.6185
▁자문위원	-11.6185
▁이현	-11.6185
▁늘었습니다	-11.6186
▁방문하시면	-11.619
▁산업기술	-11.6191
▁59	-11.6192
950	-11.6194
cross	-11.6194
▁떡	-11.6195
센터가	-11.6195
1100	-11.6198
았어요	-11.6198
▁환경공학	-11.62
260	-11.62
_#002	-11.6201
▁익혀	-11.6201
여의도	-11.6202
frame	-11.6202
로도	-11.6203
▁공간에서	-11.6204
▁김학	-11.6205
교학사	-11.6206
뽀	-11.6207
배경	-11.6207
하남	-11.6207
▁대화를	-11.6208
▁대만	-11.6209
▁빛나는	-11.6209
▁광명	-11.6211
쥐	-11.6211
토요일	-11.6212
빠른	-11.6212
cra	-11.6213
"...	-11.6214
ated	-11.6214
▁촬영하였습니다	-11.6215
▁철거	-11.6216
앨	-11.6217
▁그렇	-11.6218
▁누르시고	-11.6218
외과	-11.6219
▁의의	-11.622
▁think	-11.622
인류	-11.6222
권리	-11.6224
▁그가	-11.6224
고등학생	-11.6224
▁사랑의	-11.6225
넣기	-11.6227
...[	-11.6227
organ	-11.6228
▁교육용	-11.6228
▁대학생활	-11.6229
▁아내	-11.6229
▁늘려	-11.623
▁스타일링	-11.623
keit	-11.6231
seong	-11.6232
재미	-11.6233
▁중앙대	-11.6233
010-9	-11.6233
▁micro	-11.6234
▁사후	-11.6234
▁온라인교육	-11.6234
▁밝히	-11.6236
---------------*	-11.6236
경제의신과함께	-11.6236
▁꼼꼼하게	-11.6236
심판	-11.6237
▁타임	-11.6237
▁혁신도시	-11.6237
돈버는	-11.6237
자동차정비산업기사	-11.624
▁플레이어	-11.624
▁become	-11.6241
▁생생하게	-11.6241
미생물	-11.6242
책임자	-11.6243
▁해결하는	-11.6243
팝송	-11.6246
▁연구하고	-11.6247
진수	-11.6248
드디어	-11.6248
▁의혹이	-11.625
▁나오지	-11.6251
▁중개실무	-11.6251
▁대덕	-11.6253
▁즐겁고	-11.6254
베이커리	-11.6254
▁후속	-11.6254
▁사람들과	-11.6254
vin	-11.6255
▁약점	-11.6256
gil	-11.6257
▁최근에	-11.6258
▁된다면	-11.6259
불합격시	-11.626
모르	-11.626
▁일제	-11.6262
▁오염수	-11.6262
조리기능사	-11.6264
▁창의적인	-11.6266
▁블로그에	-11.6266
부담	-11.6267
한의사	-11.6268
강좌를	-11.6268
은희	-11.6269
▁분석과	-11.627
▁생길	-11.627
끌	-11.6271
▁당신을	-11.6273
▁뷰어	-11.6273
208	-11.6274
president	-11.6275
▁연구자	-11.6275
▁bl	-11.6276
머스	-11.6276
afreeca	-11.6277
▁재건축	-11.6278
웃음	-11.6278
광장	-11.6278
▁수업입니다	-11.6279
▁차이를	-11.628
친화	-11.628
▁정보화	-11.6281
픈	-11.6281
ions	-11.6281
▁생명공학	-11.6282
보았다	-11.6282
▁그러면	-11.6282
▁일자리를	-11.6283
▁신나는	-11.6285
▁많을	-11.6286
은영	-11.6288
캡	-11.6289
행정학과	-11.6289
쎄	-11.629
대한항공	-11.6292
▁엑스	-11.6293
▁기술에	-11.6294
▁공연장	-11.6294
지윤	-11.6295
▁개발해	-11.6296
▁작업환경	-11.6296
▁홍보대사	-11.6298
▁오를	-11.6299
▁어디로	-11.63
▁깔	-11.63
▁건데요	-11.6302
▁수사를	-11.6302
▁che	-11.6302
▁많은데	-11.6304
▁하네요	-11.6304
하나님	-11.6304
단순	-11.6305
round	-11.6308
customer	-11.6308
경연대회	-11.6308
북부	-11.6308
다락원	-11.6308
▁주류	-11.6309
▁various	-11.631
핸	-11.631
무한도전	-11.631
station	-11.6311
출근	-11.6311
▁빙	-11.6314
협회장	-11.6314
ria	-11.6314
▁귀농	-11.6315
▁부스	-11.6316
▁아이들에게	-11.6317
▁영상물은	-11.6317
▁붕괴	-11.6318
▁알리	-11.6318
/+	-11.6319
▁call	-11.632
▁국민이	-11.632
영어영어	-11.6322
place	-11.6322
소상공인	-11.6322
▁극장	-11.6323
▁활용하기	-11.6323
▁한방에	-11.6323
▁지구의	-11.6323
▁||	-11.6324
▁하려고	-11.6325
춰	-11.6325
탐구생활	-11.6325
▁lot	-11.6325
치아	-11.6329
▁영혼	-11.6329
▁도덕	-11.633
157	-11.6331
▁데모	-11.6332
버렸	-11.6332
▁액체	-11.6334
▁차지하는	-11.6335
입장	-11.6335
▁무엇이든	-11.6335
▁캠프	-11.6336
▁찌	-11.6336
▁털	-11.6337
▁함께하고	-11.6337
▁영광	-11.6338
폭력	-11.6338
zoom	-11.6339
▁디자이너의	-11.634
fund	-11.634
▁특급	-11.634
▁kf	-11.6344
picture	-11.6344
▁02-398-4441(	-11.6344
톰	-11.6344
▁ᄏᄏ	-11.6344
▁어울리는	-11.6345
게이트	-11.6345
▁우리은행	-11.6347
▁국정	-11.6347
▁영상들	-11.6347
inc	-11.6348
environmental	-11.6348
▁사역	-11.6349
▁셀트리온	-11.6349
who	-11.6349
▁위기에	-11.635
다방	-11.6351
기업은행	-11.6352
▁어르신들	-11.6353
▁분석한	-11.6354
▁역대급	-11.6354
쿠팡	-11.6354
▁영역을	-11.6355
▁비료	-11.6355
융	-11.6357
절대	-11.6357
▁자치	-11.6358
기호	-11.6358
열처리	-11.6358
된다고	-11.6359
dent	-11.6359
▁dj	-11.636
▁가리	-11.6364
▁설문조사	-11.6364
▁봐주	-11.6364
▁감염이	-11.6364
▁말씀드리	-11.6365
cert	-11.6366
차를	-11.6366
yoo	-11.6367
▁바꾼	-11.6368
때는	-11.6371
배당	-11.6371
태영	-11.6372
했었	-11.6373
전문위원	-11.6373
▁보자	-11.6373
▁모르겠	-11.6373
▁moon	-11.6374
▁학급	-11.6376
▁김창	-11.6377
조달	-11.6377
▁소품	-11.6378
마무리	-11.6379
▁참사	-11.6379
고추	-11.6379
solidworks	-11.638
한국관광공사	-11.638
영어공부	-11.6381
▁정보보호	-11.6383
▁작품들	-11.6384
▁inc	-11.6384
▁물론이고	-11.6384
패션디자이너	-11.6386
외식경영	-11.6387
▁건데	-11.6388
파인	-11.6391
▁규모가	-11.6391
▁industry	-11.6391
geo	-11.6392
정책연구소	-11.6392
▁ri	-11.6393
bookk	-11.6395
▁캠핑	-11.6396
소연	-11.6396
khan	-11.6397
▁같은데	-11.6398
꽁	-11.6398
▁민사특별법	-11.6398
▁꼼꼼히	-11.6398
간단	-11.6399
아저씨	-11.6399
다니	-11.64
▁합격할	-11.64
▁아시나요	-11.6401
좌표	-11.6403
▁박영	-11.6403
cts	-11.6404
▁파이프	-11.6405
▁토크쇼	-11.6407
▁합격이	-11.6407
아르	-11.6407
▁나름	-11.6409
▁참여자	-11.6409
▁중장기	-11.6409
▁거울	-11.641
▁산다	-11.641
0001	-11.641
하하	-11.6411
▁도달	-11.6411
▁pt	-11.6412
202103	-11.6413
▁전과목	-11.6415
▁싸움	-11.6415
오전	-11.6415
▁문제점을	-11.6415
▁tips	-11.6415
▁atc	-11.6416
스포츠마케팅	-11.6416
쇼호스트	-11.6416
▁한국무용	-11.6416
다이어리	-11.6417
▁있었는지	-11.6418
아나	-11.6419
▁되다	-11.6422
▁유형별	-11.6422
그루	-11.6423
▁2,000	-11.6425
▁마찬가지	-11.6425
2004	-11.6426
▁도자	-11.6427
rank	-11.6428
lla	-11.6428
seat	-11.6429
▁clips	-11.643
▁흰	-11.643
▁고속	-11.6431
▁스쿨	-11.6431
장구	-11.6432
▁신기	-11.6435
리라	-11.6435
▁건강에	-11.6435
▁있거나	-11.6438
▁만드	-11.6439
웍스	-11.6439
949	-11.644
▁photo	-11.6441
확률	-11.6441
관세	-11.6443
바른	-11.6443
건축사	-11.6444
cook	-11.6444
▁걸린	-11.6447
영웅문	-11.6447
/36	-11.6448
유전자	-11.6448
▁유동	-11.645
▁미분과	-11.645
▁존재하는	-11.6452
▁바다를	-11.6452
배나	-11.6452
▁사건이	-11.6452
싹	-11.6453
▁58	-11.6453
▁되돌아	-11.6453
▁경품	-11.6453
▁좋으	-11.6454
▁다해	-11.6454
knou	-11.6454
▁컨벤션	-11.6454
▁조사하고	-11.6455
▁기소	-11.6455
ise	-11.6455
▁골드	-11.6458
민호	-11.6458
▁힘들다면	-11.6459
▁전략적	-11.646
언제나	-11.646
분야의	-11.6461
▁사용이	-11.6462
▁지원센터	-11.6463
nas	-11.6463
전문회사	-11.6464
▁발명	-11.6465
학부모	-11.6466
▁업무협약	-11.6466
▁물건을	-11.6469
▁강세	-11.6469
▁칸	-11.647
▁이원	-11.647
갯	-11.6471
yonkotv	-11.6471
학과소개	-11.6473
▁주관하는	-11.6474
기계설계산업기사	-11.6476
체계를	-11.6476
▁한솔아카데미	-11.6476
▁낭독	-11.6477
stat	-11.6478
김재	-11.6478
용역	-11.648
보청기	-11.6481
▁크리에이티브	-11.6481
▁지속가능	-11.6482
▁프레스	-11.6483
▁열려	-11.6484
▁자연의	-11.6486
마니	-11.6486
bass	-11.6486
emp	-11.6486
▁합병	-11.6486
▁주지	-11.6487
▁국제회의	-11.6487
▁인생의	-11.6487
▁명시	-11.6488
▁2003	-11.6489
캣	-11.649
▁함양	-11.649
insight	-11.649
▁써야	-11.649
cas	-11.6491
▁마르	-11.6491
▁exhibition	-11.6491
영미	-11.6492
리터	-11.6493
▁최신강의	-11.6493
비트코인	-11.6493
yan	-11.6494
▁전문으로	-11.6494
▁정신과	-11.6494
▁거기에	-11.6495
화물운송	-11.6495
▁견해	-11.6495
일산	-11.6496
위로	-11.6497
2007	-11.6498
▁취업준비	-11.6498
makeup	-11.6498
삶	-11.6498
방법론	-11.6499
분간	-11.65
장애인복지관	-11.65
]2020	-11.6501
▁이천	-11.6502
밀리	-11.6504
동네	-11.6504
▁032	-11.6504
▁입법	-11.6504
▁아이가	-11.6505
lion	-11.6506
▁기초를	-11.6507
선언	-11.6507
짚	-11.6508
▁joakim	-11.6508
여드름	-11.6508
▁센	-11.6508
주시기	-11.6508
1994	-11.651
륙	-11.651
세바시	-11.6511
수첩	-11.6511
▁꿈과	-11.6511
▁뉴스데스크	-11.6512
▁try	-11.6513
싫	-11.6514
▁있었고	-11.6514
영화제	-11.6515
rap	-11.6515
320	-11.6516
▁주어	-11.6517
▁파주	-11.6517
▁정동	-11.6517
▁김윤	-11.6517
▁라고	-11.6518
▁농구	-11.652
▁교육생	-11.652
기관의	-11.6523
▁교사가	-11.6523
지원단	-11.6523
벳	-11.6526
민족	-11.6526
깜	-11.6526
▁theory	-11.6526
18.	-11.6528
경원	-11.6529
헬	-11.6529
mecha	-11.653
감시	-11.6531
상자	-11.6532
▁vcr	-11.6532
▁모인	-11.6533
▁microsoft	-11.6533
▁창업자	-11.6534
버그	-11.6534
=9	-11.6535
칼라	-11.6535
▁용량	-11.6536
▁선택할	-11.6537
▁측면에서	-11.6538
꼬리	-11.6539
▁교육서비스	-11.6539
집행	-11.654
▁양파	-11.654
정답	-11.6541
봤는데	-11.6542
nda	-11.6544
루틴	-11.6544
자료를	-11.6545
그래피	-11.6547
▁훈	-11.6547
공대생	-11.6547
중학수학	-11.6548
원서접수	-11.6548
▁것이라	-11.6548
명령	-11.6548
▁john	-11.6548
프리랜서	-11.6549
▁씨를	-11.6549
▁가이드라인	-11.6549
▁납부	-11.6551
복싱	-11.6552
여기에	-11.6554
▁다음주	-11.6554
▁고품질	-11.6554
▁모닝	-11.6555
들로부터	-11.6555
▁광학	-11.6556
▁신개념	-11.6556
팡	-11.6556
▁마련했습니다	-11.6559
키트	-11.656
▁우울증	-11.656
선도	-11.6562
▁몰랐	-11.6562
tiktok	-11.6563
▁청렴	-11.6564
▁실업	-11.6564
1005	-11.6566
특수교사	-11.6567
▁강성	-11.6567
전문학원	-11.6569
ingang	-11.6569
▁업체들이	-11.657
▁듣는다	-11.657
vic	-11.6572
vel	-11.6574
▁해부학	-11.6574
tas	-11.6575
▁스마트팜	-11.6576
▁자료가	-11.6579
개미	-11.658
수료	-11.6581
볼까	-11.6581
기업홍보영상	-11.6582
▁focus	-11.6582
▁2~3	-11.6582
▁없도록	-11.6585
▁그중	-11.6585
tiny	-11.6585
▁크림	-11.6586
▁cal	-11.6587
wan	-11.6589
▁발성	-11.6589
아이폰	-11.659
경로	-11.6591
▁sports	-11.6592
▁join	-11.6593
▁사이에서	-11.6593
오피스텔	-11.6593
계정	-11.6594
▁팬데믹	-11.6595
지게차	-11.6596
▁도매	-11.6596
▁보물	-11.6597
api	-11.6598
pid	-11.6599
상담심리	-11.66
훼	-11.66
▁미어캣	-11.66
터미널	-11.66
▁메이커	-11.6601
0000	-11.6601
▁보고싶다면	-11.6601
tter	-11.6602
골목	-11.6602
자료는	-11.6605
▁겨우	-11.6605
ost	-11.6607
분만	-11.6607
fan	-11.6608
롭고	-11.6608
▁방위산업	-11.6608
▁원격수업	-11.6608
올라	-11.661
▁이윤	-11.661
호기	-11.6611
cnc	-11.6611
-16	-11.6613
회의를	-11.6613
▁platform	-11.6614
▁선택을	-11.6614
▁확산을	-11.6615
▁하루에	-11.6615
▁로마	-11.6616
장치를	-11.6618
knowledge	-11.6619
퀸	-11.6619
재경관리사	-11.6619
▁broadcasting	-11.6619
미주	-11.6619
▁알려드려요	-11.662
▁analysis	-11.662
ats	-11.6624
리딩	-11.6625
▁고위	-11.6626
▁최적화된	-11.6627
살림	-11.6631
테일	-11.6631
▁그림책	-11.6633
였는데	-11.6633
놀이치료	-11.6633
▁고양	-11.6634
▁메가	-11.6635
전자공학	-11.6635
레포츠	-11.6637
상업	-11.6639
▁위의	-11.6639
히어로	-11.6639
▁수능기출	-11.6641
ucp	-11.6643
930	-11.6644
▁가톨릭	-11.6644
캠페인	-11.6644
black	-11.6645
언택트	-11.6645
▁문장을	-11.6645
medi	-11.6645
ami	-11.6646
▁섹터	-11.6646
퍼스트	-11.6647
▁사업설명회	-11.6647
▁대학의	-11.6648
▁문과	-11.6648
▁패션쇼	-11.665
소녀	-11.6651
▁수강생들	-11.6651
▁팝	-11.6652
9,000	-11.6653
▁general	-11.6654
[...]
